<unk>	0
<s>	0
</s>	0
<pad>	0
<0x00>	0
<0x01>	0
<0x02>	0
<0x03>	0
<0x04>	0
<0x05>	0
<0x06>	0
<0x07>	0
<0x08>	0
<0x09>	0
<0x0A>	0
<0x0B>	0
<0x0C>	0
<0x0D>	0
<0x0E>	0
<0x0F>	0
<0x10>	0
<0x11>	0
<0x12>	0
<0x13>	0
<0x14>	0
<0x15>	0
<0x16>	0
<0x17>	0
<0x18>	0
<0x19>	0
<0x1A>	0
<0x1B>	0
<0x1C>	0
<0x1D>	0
<0x1E>	0
<0x1F>	0
<0x20>	0
<0x21>	0
<0x22>	0
<0x23>	0
<0x24>	0
<0x25>	0
<0x26>	0
<0x27>	0
<0x28>	0
<0x29>	0
<0x2A>	0
<0x2B>	0
<0x2C>	0
<0x2D>	0
<0x2E>	0
<0x2F>	0
<0x30>	0
<0x31>	0
<0x32>	0
<0x33>	0
<0x34>	0
<0x35>	0
<0x36>	0
<0x37>	0
<0x38>	0
<0x39>	0
<0x3A>	0
<0x3B>	0
<0x3C>	0
<0x3D>	0
<0x3E>	0
<0x3F>	0
<0x40>	0
<0x41>	0
<0x42>	0
<0x43>	0
<0x44>	0
<0x45>	0
<0x46>	0
<0x47>	0
<0x48>	0
<0x49>	0
<0x4A>	0
<0x4B>	0
<0x4C>	0
<0x4D>	0
<0x4E>	0
<0x4F>	0
<0x50>	0
<0x51>	0
<0x52>	0
<0x53>	0
<0x54>	0
<0x55>	0
<0x56>	0
<0x57>	0
<0x58>	0
<0x59>	0
<0x5A>	0
<0x5B>	0
<0x5C>	0
<0x5D>	0
<0x5E>	0
<0x5F>	0
<0x60>	0
<0x61>	0
<0x62>	0
<0x63>	0
<0x64>	0
<0x65>	0
<0x66>	0
<0x67>	0
<0x68>	0
<0x69>	0
<0x6A>	0
<0x6B>	0
<0x6C>	0
<0x6D>	0
<0x6E>	0
<0x6F>	0
<0x70>	0
<0x71>	0
<0x72>	0
<0x73>	0
<0x74>	0
<0x75>	0
<0x76>	0
<0x77>	0
<0x78>	0
<0x79>	0
<0x7A>	0
<0x7B>	0
<0x7C>	0
<0x7D>	0
<0x7E>	0
<0x7F>	0
<0x80>	0
<0x81>	0
<0x82>	0
<0x83>	0
<0x84>	0
<0x85>	0
<0x86>	0
<0x87>	0
<0x88>	0
<0x89>	0
<0x8A>	0
<0x8B>	0
<0x8C>	0
<0x8D>	0
<0x8E>	0
<0x8F>	0
<0x90>	0
<0x91>	0
<0x92>	0
<0x93>	0
<0x94>	0
<0x95>	0
<0x96>	0
<0x97>	0
<0x98>	0
<0x99>	0
<0x9A>	0
<0x9B>	0
<0x9C>	0
<0x9D>	0
<0x9E>	0
<0x9F>	0
<0xA0>	0
<0xA1>	0
<0xA2>	0
<0xA3>	0
<0xA4>	0
<0xA5>	0
<0xA6>	0
<0xA7>	0
<0xA8>	0
<0xA9>	0
<0xAA>	0
<0xAB>	0
<0xAC>	0
<0xAD>	0
<0xAE>	0
<0xAF>	0
<0xB0>	0
<0xB1>	0
<0xB2>	0
<0xB3>	0
<0xB4>	0
<0xB5>	0
<0xB6>	0
<0xB7>	0
<0xB8>	0
<0xB9>	0
<0xBA>	0
<0xBB>	0
<0xBC>	0
<0xBD>	0
<0xBE>	0
<0xBF>	0
<0xC0>	0
<0xC1>	0
<0xC2>	0
<0xC3>	0
<0xC4>	0
<0xC5>	0
<0xC6>	0
<0xC7>	0
<0xC8>	0
<0xC9>	0
<0xCA>	0
<0xCB>	0
<0xCC>	0
<0xCD>	0
<0xCE>	0
<0xCF>	0
<0xD0>	0
<0xD1>	0
<0xD2>	0
<0xD3>	0
<0xD4>	0
<0xD5>	0
<0xD6>	0
<0xD7>	0
<0xD8>	0
<0xD9>	0
<0xDA>	0
<0xDB>	0
<0xDC>	0
<0xDD>	0
<0xDE>	0
<0xDF>	0
<0xE0>	0
<0xE1>	0
<0xE2>	0
<0xE3>	0
<0xE4>	0
<0xE5>	0
<0xE6>	0
<0xE7>	0
<0xE8>	0
<0xE9>	0
<0xEA>	0
<0xEB>	0
<0xEC>	0
<0xED>	0
<0xEE>	0
<0xEF>	0
<0xF0>	0
<0xF1>	0
<0xF2>	0
<0xF3>	0
<0xF4>	0
<0xF5>	0
<0xF6>	0
<0xF7>	0
<0xF8>	0
<0xF9>	0
<0xFA>	0
<0xFB>	0
<0xFC>	0
<0xFD>	0
<0xFE>	0
<0xFF>	0
▁t	-0
in	-1
▁a	-2
he	-3
on	-4
re	-5
▁s	-6
at	-7
er	-8
▁c	-9
▁the	-10
or	-11
en	-12
es	-13
▁f	-14
ing	-15
▁p	-16
it	-17
le	-18
nd	-19
ion	-20
▁w	-21
▁in	-22
is	-23
ar	-24
al	-25
de	-26
ro	-27
▁o	-28
▁m	-29
an	-30
▁and	-31
ct	-32
▁re	-33
▁b	-34
st	-35
ic	-36
ut	-37
ed	-38
▁of	-39
▁d	-40
as	-41
ent	-42
ou	-43
▁to	-44
▁e	-45
▁th	-46
▁l	-47
▁st	-48
ac	-49
ation	-50
▁n	-51
el	-52
▁co	-53
mp	-54
ur	-55
▁for	-56
et	-57
if	-58
ate	-59
▁u	-60
ow	-61
ra	-62
ul	-63
▁con	-64
▁h	-65
▁I	-66
ith	-67
iv	-68
il	-69
▁pro	-70
▁g	-71
▁=	-72
▁T	-73
▁is	-74
ri	-75
▁(	-76
▁with	-77
th	-78
ol	-79
ment	-80
ch	-81
me	-82
se	-83
ction	-84
;\	-85
▁that	-86
ess	-87
▁v	-88
qu	-89
ly	-90
▁C	-91
\\	-92
ig	-93
▁de	-94
▁an	-95
▁sh	-96
▁S	-97
ot	-98
um	-99
ag	-100
▁on	-101
ter	-102
un	-103
▁{	-104
▁A	-105
put	-106
▁-	-107
est	-108
im	-109
ce	-110
▁The	-111
ld	-112
▁str	-113
ers	-114
▁ex	-115
pt	-116
▁ret	-117
mple	-118
te	-119
id	-120
ab	-121
▁be	-122
pp	-123
cess	-124
▁P	-125
▁us	-126
▁{\	-127
▁as	-128
▁$	-129
▁}	-130
ould	-131
orm	-132
ran	-133
av	-134
urn	-135
ite	-136
and	-137
▁ch	-138
ure	-139
ay	-140
iz	-141
form	-142
▁return	-143
▁mo	-144
▁en	-145
ist	-146
ver	-147
▁al	-148
lu	-149
ir	-150
▁se	-151
ad	-152
);\	-153
unction	-154
ain	-155
ase	-156
▁it	-157
``	-158
elf	-159
▁}\	-160
:\	-161
rans	-162
▁y	-163
▁should	-164
▁or	-165
▁code	-166
ke	-167
▁'	-168
▁i	-169
yth	-170
ass	-171
▁function	-172
▁are	-173
ython	-174
▁W	-175
str	-176
pl	-177
pe	-178
ult	-179
▁wh	-180
ity	-181
clu	-182
nt	-183
▁H	-184
▁if	-185
▁cl	-186
rom	-187
ine	-188
am	-189
our	-190
▁this	-191
▁+	-192
▁B	-193
ive	-194
▁sc	-195
--	-196
▁\	-197
res	-198
ff	-199
▁In	-200
int	-201
▁res	-202
▁using	-203
ransform	-204
age	-205
▁le	-206
ve	-207
ript	-208
▁su	-209
dex	-210
▁D	-211
low	-212
os	-213
per	-214
()	-215
rite	-216
▁at	-217
ile	-218
char	-219
$$	-220
▁from	-221
od	-222
▁he	-223
om	-224
▁input	-225
ort	-226
▁ne	-227
ies	-228
oc	-229
art	-230
ach	-231
▁by	-232
ace	-233
▁F	-234
ide	-235
ht	-236
▁dat	-237
ere	-238
▁pl	-239
ust	-240
clude	-241
ack	-242
▁cont	-243
▁R	-244
▁char	-245
du	-246
ib	-247
iven	-248
ize	-249
ame	-250
mplement	-251
em	-252
ip	-253
ant	-254
umb	-255
her	-256
▁E	-257
ift	-258
▁ac	-259
ial	-260
▁def	-261
rocess	-262
▁val	-263
og	-264
▁whe	-265
▁class	-266
)\	-267
ations	-268
),	-269
us	-270
).	-271
able	-272
▁process	-273
▁numb	-274
▁com	-275
▁U	-276
::	-277
ect	-278
▁hand	-279
▁app	-280
act	-281
▁Y	-282
ap	-283
▁we	-284
▁qu	-285
ition	-286
end	-287
all	-288
ill	-289
▁self	-290
ang	-291
▁can	-292
▁sol	-293
▁int	-294
▁ar	-295
▁`	-296
ind	-297
▁r	-298
▁M	-299
red	-300
▁string	-301
▁test	-302
▁J	-303
ard	-304
▁O	-305
```	-306
▁ro	-307
ated	-308
ache	-309
▁"	-310
▁Python	-311
▁you	-312
ue	-313
ution	-314
tr	-315
ign	-316
▁fol	-317
ical	-318
▁Write	-319
cript	-320
▁each	-321
▁not	-322
ments	-323
oo	-324
▁inte	-325
▁ad	-326
ild	-327
▁follow	-328
utput	-329
▁G	-330
ks	-331
▁all	-332
les	-333
ates	-334
▁const	-335
cur	-336
▁\\	-337
▁N	-338
xt	-339
self	-340
▁data	-341
uct	-342
▁given	-343
ave	-344
reate	-345
tern	-346
▁requ	-347
▁->	-348
▁te	-349
▁me	-350
▁index	-351
▁integ	-352
gy	-353
nder	-354
ice	-355
ich	-356
▁number	-357
ary	-358
▁comp	-359
out	-360
key	-361
oint	-362
rou	-363
▁so	-364
ge	-365
▁man	-366
▁met	-367
▁k	-368
ore	-369
ance	-370
▁form	-371
▁per	-372
▁pat	-373
uild	-374
ph	-375
uff	-376
▁un	-377
▁result	-378
ell	-379
▁HT	-380
con	-381
ML	-382
▁following	-383
ord	-384
▁transform	-385
▁des	-386
▁which	-387
ava	-388
▁spe	-389
ight	-390
▁sp	-391
ime	-392
▁[	-393
ory	-394
▁acc	-395
ak	-396
▁contain	-397
▁j	-398
▁HTML	-399
▁fi	-400
ast	-401
index	-402
ics	-403
▁ab	-404
ode	-405
▁Include	-406
▁sy	-407
▁comple	-408
▁<	-409
ress	-410
Script	-411
▁solution	-412
▁tw	-413
▁imp	-414
erv	-415
ry	-416
ram	-417
rocessor	-418
▁end	-419
ling	-420
ep	-421
cul	-422
pon	-423
enc	-424
▁must	-425
▁Sh	-426
▁ele	-427
▁L	-428
▁new	-429
▁have	-430
▁one	-431
ient	-432
▁ful	-433
▁Implement	-434
▁list	-435
ute	-436
ec	-437
▁do	-438
▁into	-439
irst	-440
▁Java	-441
vide	-442
ub	-443
▁dis	-444
.\	-445
▁script	-446
one	-447
op	-448
ble	-449
▁implement	-450
string	-451
ens	-452
▁tra	-453
rame	-454
▁request	-455
▁pr	-456
eng	-457
ther	-458
ork	-459
ma	-460
ample	-461
▁add	-462
▁prog	-463
ft	-464
▁```	-465
▁two	-466
ication	-467
▁cle	-468
fere	-469
rig	-470
▁di	-471
▁let	-472
▁col	-473
▁mat	-474
▁struct	-475
▁ma	-476
▁Create	-477
ions	-478
hod	-479
_{	-480
rac	-481
etw	-482
▁pos	-483
alcul	-484
ating	-485
▁Use	-486
',	-487
▁where	-488
▁&	-489
ategy	-490
ible	-491
ject	-492
▁shift	-493
ount	-494
cache	-495
PI	-496
verse	-497
ence	-498
▁your	-499
▁python	-500
vent	-501
▁only	-502
▁Your	-503
ror	-504
▁par	-505
▁key	-506
are	-507
ength	-508
▁rep	-509
▁dif	-510
▁pre	-511
ally	-512
▁ob	-513
▁sm	-514
▁first	-515
▁std	-516
▁Build	-517
▁spec	-518
ns	-519
eld	-520
▁has	-521
stem	-522
▁fil	-523
▁time	-524
▁li	-525
▁cor	-526
▁but	-527
▁mult	-528
▁log	-529
▁produ	-530
▁provide	-531
,\	-532
▁how	-533
gh	-534
ray	-535
▁its	-536
sh	-537
▁JavaScript	-538
ari	-539
▁when	-540
ener	-541
rect	-542
rit	-543
▁inter	-544
▁play	-545
SS	-546
ew	-547
ree	-548
tring	-549
har	-550
▁output	-551
ong	-552
▁program	-553
blem	-554
right	-555
vel	-556
ator	-557
▁up	-558
▁set	-559
----	-560
▁file	-561
▁valid	-562
ding	-563
uring	-564
▁bo	-565
lo	-566
▁any	-567
so	-568
▁handling	-569
▁design	-570
ous	-571
▁contains	-572
ingle	-573
sive	-574
dition	-575
▁method	-576
wer	-577
par	-578
▁write	-579
no	-580
▁equ	-581
▁system	-582
▁state	-583
}\	-584
):\	-585
vers	-586
nc	-587
▁part	-588
nH	-589
▁x	-590
▁render	-591
▁er	-592
▁V	-593
▁problem	-594
ery	-595
..	-596
chars	-597
een	-598
ert	-599
▁ens	-600
▁such	-601
▁rendering	-602
etween	-603
ased	-604
ffic	-605
hat	-606
▁web	-607
}{	-608
read	-609
▁API	-610
ock	-611
▁between	-612
▁opt	-613
▁el	-614
▁structure	-615
▁Show	-616
▁like	-617
ract	-618
▁mode	-619
led	-620
▁differe	-621
frac	-622
▁inc	-623
▁ra	-624
▁comm	-625
▁respon	-626
▁single	-627
pper	-628
get	-629
▁Ex	-630
▁their	-631
();\	-632
▁oper	-633
▁line	-634
▁sub	-635
mo	-636
▁proper	-637
▁pattern	-638
rib	-639
ature	-640
ices	-641
▁start	-642
▁ty	-643
line	-644
nHere	-645
▁full	-646
▁there	-647
▁will	-648
▁error	-649
▁CSS	-650
ely	-651
ten	-652
up	-653
stuff	-654
▁serv	-655
▁conc	-656
val	-657
ency	-658
process	-659
▁value	-660
rent	-661
▁game	-662
ise	-663
▁cur	-664
▁back	-665
▁handle	-666
der	-667
▁You	-668
▁*	-669
▁specif	-670
▁conf	-671
▁dist	-672
own	-673
▁would	-674
$$$	-675
▁include	-676
cursive	-677
▁Th	-678
▁use	-679
ict	-680
▁fn	-681
▁field	-682
mat	-683
▁min	-684
au	-685
▁calcul	-686
▁some	-687
▁Con	-688
▁gener	-689
ility	-690
ied	-691
ration	-692
Char	-693
▁then	-694
▁ans	-695
▁writ	-696
ick	-697
▁chang	-698
▁String	-699
ob	-700
ll	-701
▁aut	-702
fter	-703
▁other	-704
point	-705
ail	-706
text	-707
▁>	-708
^{	-709
inal	-710
ibr	-711
ctions	-712
▁frame	-713
ues	-714
▁format	-715
▁find	-716
▁point	-717
ark	-718
▁also	-719
cond	-720
ost	-721
▁≤	-722
__	-723
▁inclu	-724
ransformer	-725
▁cons	-726
chan	-727
],	-728
▁If	-729
▁ensure	-730
▁%	-731
▁complete	-732
trategy	-733
▁array	-734
ative	-735
co	-736
ower	-737
▁datab	-738
▁libr	-739
shift	-740
▁model	-741
▁work	-742
))	-743
rough	-744
▁ph	-745
play	-746
ck	-747
▁=>	-748
▁sum	-749
▁provided	-750
▁under	-751
▁database	-752
▁object	-753
▁mem	-754
▁im	-755
case	-756
▁rel	-757
ages	-758
▁over	-759
▁exp	-760
▁How	-761
▁mob	-762
ines	-763
▁well	-764
▁answer	-765
ual	-766
▁vari	-767
▁Output	-768
▁mobile	-769
▁clean	-770
▁through	-771
▁what	-772
▁ext	-773
▁does	-774
ables	-775
▁mechan	-776
ef	-777
▁tr	-778
▁Input	-779
▁appl	-780
resent	-781
▁user	-782
ases	-783
▁example	-784
lect	-785
Strategy	-786
ound	-787
lease	-788
▁expl	-789
▁separ	-790
▁print	-791
▁$$$	-792
▁#	-793
ces	-794
▁was	-795
▁else	-796
▁trans	-797
▁step	-798
▁import	-799
▁processor	-800
▁supp	-801
▁appro	-802
▁service	-803
ting	-804
▁while	-805
▁gra	-806
ask	-807
(&	-808
ify	-809
ty	-810
▁kn	-811
▁endpoint	-812
ys	-813
ose	-814
iple	-815
▁\(	-816
▁get	-817
gor	-818
▁go	-819
▁K	-820
gan	-821
▁different	-822
min	-823
ization	-824
▁che	-825
▁framew	-826
yn	-827
▁them	-828
ithm	-829
▁second	-830
▁read	-831
ud	-832
ear	-833
▁integers	-834
▁length	-835
ook	-836
}$	-837
its	-838
cept	-839
▁more	-840
ater	-841
ooth	-842
ss	-843
▁quest	-844
▁tests	-845
app	-846
▁What	-847
▁sem	-848
lass	-849
▁place	-850
▁fl	-851
▁smooth	-852
round	-853
ized	-854
orks	-855
ause	-856
▁numbers	-857
▁path	-858
to	-859
aries	-860
▁This	-861
ST	-862
size	-863
▁than	-864
transform	-865
▁dec	-866
dule	-867
▁nam	-868
ome	-869
▁For	-870
▁$\\	-871
▁pred	-872
▁am	-873
▁these	-874
▁fe	-875
mented	-876
rid	-877
ne	-878
▁pe	-879
▁config	-880
▁integer	-881
▁Processor	-882
Processor	-883
▁condition	-884
▁both	-885
▁case	-886
▁organ	-887
▁stuff	-888
gle	-889
▁no	-890
▁they	-891
row	-892
▁module	-893
▁rem	-894
imum	-895
ays	-896
▁values	-897
ffect	-898
▁Re	-899
▁/	-900
▁hig	-901
nce	-902
pect	-903
▁==	-904
struct	-905
raint	-906
▁Please	-907
▁It	-908
▁complex	-909
▁support	-910
▁fix	-911
▁charact	-912
que	-913
▁eng	-914
▁respons	-915
▁webs	-916
▁inv	-917
▁right	-918
iver	-919
python	-920
▁including	-921
▁out	-922
▁ass	-923
▁typ	-924
▁Can	-925
elow	-926
▁ener	-927
ci	-928
bo	-929
gorithm	-930
▁job	-931
▁-----	-932
ru	-933
▁website	-934
tal	-935
▁>=	-936
▁dete	-937
ric	-938
▁functions	-939
ternal	-940
ia	-941
ie	-942
▁reg	-943
ident	-944
▁ag	-945
antic	-946
▁represent	-947
QL	-948
ular	-949
page	-950
ined	-951
▁mechanics	-952
▁van	-953
raints	-954
arch	-955
▁bl	-956
▁question	-957
▁''	-958
ven	-959
▁requests	-960
ake	-961
▁base	-962
plic	-963
▁hel	-964
▁energy	-965
▁implementation	-966
▁mod	-967
atic	-968
ful	-969
▁unit	-970
▁semantic	-971
▁count	-972
()\	-973
ubl	-974
▁inst	-975
ors	-976
ton	-977
▁about	-978
▁sort	-979
ready	-980
amp	-981
▁separate	-982
▁written	-983
fore	-984
▁space	-985
che	-986
▁changes	-987
illa	-988
imation	-989
▁|	-990
▁perform	-991
ins	-992
ning	-993
els	-994
▁z	-995
ential	-996
▁ind	-997
▁vanilla	-998
▁card	-999
",	-1000
▁Ad	-1001
old	-1002
▁predict	-1003
▁Find	-1004
▁engine	-1005
▁cache	-1006
com	-1007
ron	-1008
▁comments	-1009
▁current	-1010
ms	-1011
▁same	-1012
ically	-1013
ps	-1014
▁real	-1015
▁ent	-1016
ata	-1017
▁event	-1018
▁beh	-1019
ex	-1020
ross	-1021
sible	-1022
iveness	-1023
▁remain	-1024
▁team	-1025
▁<=	-1026
((	-1027
▁multi	-1028
itial	-1029
▁optim	-1030
nI	-1031
ider	-1032
▁dep	-1033
▁tak	-1034
$,	-1035
▁tim	-1036
▁mess	-1037
▁frameworks	-1038
ipul	-1039
▁configur	-1040
▁correct	-1041
ta	-1042
▁multiple	-1043
▁elements	-1044
ward	-1045
▁after	-1046
ded	-1047
recursive	-1048
▁libraries	-1049
ities	-1050
▁external	-1051
▁mid	-1052
▁manipul	-1053
amet	-1054
▁files	-1055
▁total	-1056
place	-1057
▁here	-1058
▁structured	-1059
▁:	-1060
▁};\	-1061
▁algorithm	-1062
▁loc	-1063
▁commented	-1064
▁clear	-1065
▁pa	-1066
▁pri	-1067
▁know	-1068
▁validation	-1069
$.	-1070
▁production	-1071
An	-1072
▁memo	-1073
ire	-1074
▁ins	-1075
Code	-1076
set	-1077
▁solve	-1078
▁Sol	-1079
▁left	-1080
▁least	-1081
▁RE	-1082
▁lo	-1083
▁responsiveness	-1084
▁incre	-1085
▁inline	-1086
▁size	-1087
▁exec	-1088
onent	-1089
▁pure	-1090
ink	-1091
▁concer	-1092
▁partic	-1093
▁shifted	-1094
▁based	-1095
▁fully	-1096
ination	-1097
▁text	-1098
ality	-1099
ging	-1100
>\	-1101
imit	-1102
▁Pro	-1103
Frame	-1104
▁temp	-1105
▁exist	-1106
ish	-1107
include	-1108
uplic	-1109
▁transformed	-1110
▁final	-1111
straints	-1112
▁REST	-1113
▁create	-1114
▁div	-1115
▁max	-1116
ced	-1117
▁show	-1118
▁concerns	-1119
▁retry	-1120
▁cases	-1121
▁elect	-1122
ash	-1123
gre	-1124
atform	-1125
▁chars	-1126
▁effect	-1127
▁order	-1128
▁enc	-1129
▁ID	-1130
ger	-1131
versed	-1132
math	-1133
ves	-1134
ynam	-1135
▁reverse	-1136
▁before	-1137
▁direct	-1138
▁display	-1139
game	-1140
reverse	-1141
rol	-1142
ix	-1143
▁possible	-1144
▁build	-1145
ian	-1146
mut	-1147
fficient	-1148
▁organize	-1149
back	-1150
▁cre	-1151
strate	-1152
Animation	-1153
▁initial	-1154
AnimationFrame	-1155
▁Below	-1156
▁pass	-1157
▁sequ	-1158
▁Constraints	-1159
▁manipulates	-1160
▁behav	-1161
▁sche	-1162
▁att	-1163
```\	-1164
range	-1165
▁specific	-1166
▁quant	-1167
▁rate	-1168
$$\	-1169
}\\	-1170
▁playable	-1171
▁many	-1172
memo	-1173
▁detection	-1174
ype	-1175
▁paramet	-1176
▁high	-1177
▁filter	-1178
af	-1179
face	-1180
over	-1181
ional	-1182
▁task	-1183
ader	-1184
▁apply	-1185
▁product	-1186
▁act	-1187
▁_	-1188
ush	-1189
ving	-1190
vi	-1191
new	-1192
start	-1193
mpot	-1194
ends	-1195
▁sur	-1196
▁my	-1197
▁image	-1198
etic	-1199
):	-1200
col	-1201
std	-1202
▁operations	-1203
▁query	-1204
▁used	-1205
▁lay	-1206
itive	-1207
ustom	-1208
▁duplic	-1209
▁emp	-1210
▁platform	-1211
oin	-1212
▁construct	-1213
▁Vec	-1214
▁St	-1215
▁ed	-1216
sc	-1217
▁ver	-1218
ming	-1219
di	-1220
iss	-1221
▁need	-1222
▁lar	-1223
▁name	-1224
▁upd	-1225
▁methods	-1226
erver	-1227
igit	-1228
length	-1229
ability	-1230
▁during	-1231
left	-1232
▁explain	-1233
ior	-1234
▁command	-1235
▁his	-1236
als	-1237
▁client	-1238
ool	-1239
▁force	-1240
▁allow	-1241
the	-1242
part	-1243
▁word	-1244
▁vis	-1245
._	-1246
▁search	-1247
▁engineer	-1248
mon	-1249
ism	-1250
stand	-1251
lower	-1252
▁An	-1253
▁Solve	-1254
▁custom	-1255
▁content	-1256
mpl	-1257
upper	-1258
▁dynam	-1259
▁cal	-1260
comp	-1261
ublic	-1262
call	-1263
aw	-1264
very	-1265
▁named	-1266
▁pers	-1267
▁without	-1268
ifter	-1269
▁main	-1270
▁mark	-1271
omet	-1272
Case	-1273
dot	-1274
gu	-1275
▁inform	-1276
▁@	-1277
▁traffic	-1278
▁ter	-1279
oid	-1280
angle	-1281
▁top	-1282
▁steps	-1283
{\\	-1284
utes	-1285
▁grid	-1286
▁non	-1287
rodu	-1288
▁â	-1289
here	-1290
▁position	-1291
angu	-1292
▁table	-1293
▁make	-1294
alculate	-1295
?\	-1296
ax	-1297
▁anim	-1298
▁peak	-1299
vas	-1300
Sh	-1301
lete	-1302
▁component	-1303
▁complexity	-1304
▁three	-1305
▁During	-1306
▁feature	-1307
▁ide	-1308
▁fact	-1309
mb	-1310
▁level	-1311
▁usize	-1312
pri	-1313
▁Al	-1314
pen	-1315
▁load	-1316
▁off	-1317
▁application	-1318
avig	-1319
▁root	-1320
ier	-1321
based	-1322
().	-1323
input	-1324
▁integration	-1325
('	-1326
ision	-1327
▁oc	-1328
▁Q	-1329
▁configuration	-1330
ote	-1331
uss	-1332
▁light	-1333
▁run	-1334
▁navig	-1335
ets	-1336
▁tri	-1337
np	-1338
ique	-1339
▁sign	-1340
▁pot	-1341
▁Co	-1342
▁limit	-1343
und	-1344
▁langu	-1345
▁takes	-1346
rix	-1347
ts	-1348
▁points	-1349
▁inf	-1350
▁stud	-1351
nclass	-1352
mor	-1353
▁move	-1354
cle	-1355
mer	-1356
gin	-1357
▁Del	-1358
▁just	-1359
▁post	-1360
▁behavior	-1361
tain	-1362
hent	-1363
reen	-1364
▁Expl	-1365
ives	-1366
ges	-1367
]\	-1368
met	-1369
▁track	-1370
minute	-1371
▁Calculate	-1372
▁mean	-1373
▁mass	-1374
▁anal	-1375
len	-1376
▁understand	-1377
▁Given	-1378
this	-1379
▁information	-1380
▁authent	-1381
▁speed	-1382
];\	-1383
▁pol	-1384
hip	-1385
-----	-1386
ired	-1387
▁comb	-1388
].	-1389
▁si	-1390
ho	-1391
Re	-1392
ale	-1393
iverables	-1394
▁check	-1395
ants	-1396
▁Deliverables	-1397
ively	-1398
▁car	-1399
join	-1400
pha	-1401
eline	-1402
▁water	-1403
▁vers	-1404
▁pag	-1405
▁access	-1406
port	-1407
mary	-1408
list	-1409
Transformer	-1410
raph	-1411
▁endpoints	-1412
function	-1413
ered	-1414
ule	-1415
▁Go	-1416
▁sequence	-1417
▁cause	-1418
ler	-1419
▁small	-1420
▁page	-1421
ending	-1422
ural	-1423
ons	-1424
▁year	-1425
▁prevent	-1426
ific	-1427
▁argu	-1428
SQL	-1429
▁called	-1430
▁mig	-1431
▁potential	-1432
▁match	-1433
▁sim	-1434
Transform	-1435
▁len	-1436
▁score	-1437
ource	-1438
▁Transformer	-1439
▁programming	-1440
▁reversed	-1441
init	-1442
▁gu	-1443
▁pay	-1444
ove	-1445
▁types	-1446
lay	-1447
▁type	-1448
iron	-1449
pro	-1450
mu	-1451
▁who	-1452
▁navigation	-1453
▁phys	-1454
nT	-1455
▁manage	-1456
other	-1457
▁she	-1458
▁returns	-1459
▁authentication	-1460
▁long	-1461
ody	-1462
▁mon	-1463
ze	-1464
mod	-1465
▁within	-1466
▁could	-1467
▁plu	-1468
▁cent	-1469
▁transformer	-1470
▁migration	-1471
▁cap	-1472
▁lines	-1473
▁ite	-1474
')	-1475
max	-1476
...	-1477
const	-1478
▁take	-1479
▁arch	-1480
▁cell	-1481
gies	-1482
`,	-1483
])	-1484
▁rec	-1485
des	-1486
serv	-1487
▁element	-1488
▁mut	-1489
▁characters	-1490
amples	-1491
ason	-1492
ault	-1493
▁distrib	-1494
▁logging	-1495
▁every	-1496
▁why	-1497
ume	-1498
nect	-1499
ared	-1500
▁av	-1501
St	-1502
▁roll	-1503
rel	-1504
▁Canvas	-1505
hen	-1506
ner	-1507
erature	-1508
time	-1509
▁may	-1510
▁schema	-1511
▁maximum	-1512
▁constructor	-1513
In	-1514
▁bu	-1515
▁errors	-1516
▁even	-1517
▁colum	-1518
▁X	-1519
agn	-1520
▁language	-1521
amb	-1522
aging	-1523
velop	-1524
bf	-1525
orld	-1526
olog	-1527
▁doc	-1528
▁__	-1529
▁Addition	-1530
partial	-1531
rics	-1532
▁deter	-1533
(\\	-1534
▁stand	-1535
▁header	-1536
eloc	-1537
ware	-1538
▁way	-1539
▁dynamic	-1540
be	-1541
ted	-1542
▁impl	-1543
ground	-1544
▁disc	-1545
▁coord	-1546
ational	-1547
ndom	-1548
▁radi	-1549
▁appropri	-1550
ings	-1551
▁veloc	-1552
current	-1553
ters	-1554
ON	-1555
▁equation	-1556
▁cir	-1557
▁most	-1558
▁comput	-1559
▁pair	-1560
▁conver	-1561
▁retri	-1562
▁positive	-1563
viron	-1564
ield	-1565
mpotency	-1566
leq	-1567
▁control	-1568
umer	-1569
raw	-1570
▁relations	-1571
▁row	-1572
data	-1573
▁diction	-1574
from	-1575
ification	-1576
▁med	-1577
▁pop	-1578
▁results	-1579
avas	-1580
▁color	-1581
▁—	-1582
RL	-1583
ipeline	-1584
▁wind	-1585
▁duplicate	-1586
▁ref	-1587
avascript	-1588
gative	-1589
▁area	-1590
ever	-1591
▁quantum	-1592
▁strings	-1593
▁.	-1594
ulation	-1595
map	-1596
▁stat	-1597
▁random	-1598
▁pract	-1599
▁tree	-1600
ining	-1601
▁specified	-1602
▁character	-1603
▁efficient	-1604
▁down	-1605
None	-1606
▁environ	-1607
▁prof	-1608
▁minimum	-1609
▁grou	-1610
aces	-1611
▁metrics	-1612
eler	-1613
mine	-1614
push	-1615
▁velocity	-1616
uch	-1617
▁flag	-1618
▁Additionally	-1619
Map	-1620
dle	-1621
asing	-1622
not	-1623
ures	-1624
▁parameters	-1625
▁background	-1626
eries	-1627
▁temperature	-1628
__(	-1629
▁vi	-1630
itect	-1631
inc	-1632
▁express	-1633
▁calculate	-1634
▁bec	-1635
▁JS	-1636
ni	-1637
▁remo	-1638
▁plan	-1639
▁summary	-1640
▁sw	-1641
▁demon	-1642
▁consist	-1643
▁De	-1644
▁relationship	-1645
has	-1646
▁rot	-1647
▁meas	-1648
▁range	-1649
▁call	-1650
▁library	-1651
▁logs	-1652
respon	-1653
▁lat	-1654
▁\)	-1655
▁architect	-1656
▁sl	-1657
▁Each	-1658
cl	-1659
ough	-1660
vec	-1661
▁desc	-1662
actions	-1663
▁instance	-1664
▁fri	-1665
▁handles	-1666
▁equal	-1667
ird	-1668
▁URL	-1669
▁distance	-1670
▁flow	-1671
▁?	-1672
atch	-1673
▁keys	-1674
▁press	-1675
▁ident	-1676
rop	-1677
▁pack	-1678
▁gre	-1679
▁Is	-1680
▁next	-1681
aps	-1682
▁''.	-1683
String	-1684
ibility	-1685
box	-1686
▁vol	-1687
▁sk	-1688
▁local	-1689
▁exper	-1690
)$	-1691
ules	-1692
Shift	-1693
);	-1694
io	-1695
alpha	-1696
ango	-1697
▁""	-1698
▁acceler	-1699
▁flo	-1700
▁redu	-1701
erial	-1702
oun	-1703
▁surface	-1704
▁functionality	-1705
▁matrix	-1706
▁saf	-1707
(),\	-1708
alle	-1709
▁helper	-1710
▁tech	-1711
▁animated	-1712
▁correspon	-1713
▁message	-1714
▁appropriate	-1715
▁last	-1716
▁Comp	-1717
valid	-1718
▁player	-1719
▁race	-1720
▁trac	-1721
▁Des	-1722
▁lab	-1723
jango	-1724
ness	-1725
▁$\	-1726
());\	-1727
inary	-1728
▁across	-1729
▁found	-1730
▁processing	-1731
▁help	-1732
ved	-1733
ograph	-1734
▁clients	-1735
▁netw	-1736
ik	-1737
▁bul	-1738
board	-1739
▁cross	-1740
result	-1741
▁delete	-1742
++	-1743
▁extract	-1744
med	-1745
▁Provide	-1746
▁strategy	-1747
▁large	-1748
▁were	-1749
lection	-1750
ath	-1751
▁squ	-1752
cii	-1753
ately	-1754
▁connect	-1755
tail	-1756
▁tre	-1757
idx	-1758
plit	-1759
verage	-1760
▁recursive	-1761
▁because	-1762
▁operation	-1763
anation	-1764
▁art	-1765
▁Example	-1766
▁minim	-1767
▁above	-1768
▁containing	-1769
),\	-1770
hes	-1771
▁&&	-1772
istic	-1773
▁environment	-1774
▁effects	-1775
izes	-1776
▁static	-1777
CharCode	-1778
▁pagination	-1779
ascii	-1780
maxsize	-1781
▁button	-1782
sing	-1783
rest	-1784
ek	-1785
requ	-1786
▁loo	-1787
processor	-1788
ides	-1789
':	-1790
step	-1791
owels	-1792
▁lock	-1793
▁along	-1794
▁progress	-1795
};\	-1796
▁orig	-1797
▁another	-1798
▁context	-1799
▁window	-1800
lru	-1801
▁common	-1802
▁air	-1803
ypeScript	-1804
ng	-1805
acc	-1806
▁experi	-1807
▁coll	-1808
▁tracing	-1809
oring	-1810
▁Django	-1811
▁graph	-1812
▁performance	-1813
▁prevention	-1814
▁Shift	-1815
▁times	-1816
da	-1817
▁IDs	-1818
layer	-1819
izing	-1820
▁properly	-1821
tem	-1822
uth	-1823
phi	-1824
cdot	-1825
}.	-1826
▁del	-1827
])\	-1828
▁mot	-1829
▁Char	-1830
▁payment	-1831
▁negative	-1832
▁lear	-1833
ero	-1834
ince	-1835
rt	-1836
ctor	-1837
▁variable	-1838
▁messages	-1839
▁cho	-1840
▁consider	-1841
▁Explain	-1842
▁addition	-1843
pos	-1844
▁fail	-1845
▁her	-1846
▁stack	-1847
ump	-1848
▁concise	-1849
ches	-1850
arent	-1851
allel	-1852
▁don	-1853
▁stre	-1854
▁response	-1855
isc	-1856
ually	-1857
▁again	-1858
▁inside	-1859
▁JSON	-1860
▁variables	-1861
▁detail	-1862
▁height	-1863
cks	-1864
▁reprodu	-1865
write	-1866
▁power	-1867
▁plus	-1868
actory	-1869
▁SQL	-1870
},	-1871
▁correl	-1872
▁dictionary	-1873
▁execute	-1874
▁section	-1875
▁prob	-1876
▁existing	-1877
▁diff	-1878
uted	-1879
▁attrib	-1880
▁ben	-1881
▁weight	-1882
▁approach	-1883
†’	-1884
let	-1885
▁directory	-1886
▁bar	-1887
▁incident	-1888
valu	-1889
▁address	-1890
▁prime	-1891
umul	-1892
▁difference	-1893
▁objects	-1894
▁side	-1895
▁names	-1896
arth	-1897
▁bas	-1898
pping	-1899
ested	-1900
▁been	-1901
▁empty	-1902
▁den	-1903
down	-1904
▁impro	-1905
▁electron	-1906
BC	-1907
▁live	-1908
{\	-1909
ators	-1910
▁respect	-1911
".	-1912
ambda	-1913
▁fields	-1914
_{\\	-1915
▁lower	-1916
gs	-1917
bar	-1918
▁change	-1919
▁much	-1920
▁grav	-1921
▁version	-1922
▁applied	-1923
name	-1924
ans	-1925
ots	-1926
olds	-1927
▁parallel	-1928
▁datas	-1929
▁digit	-1930
light	-1931
▁ball	-1932
▁phot	-1933
ference	-1934
▁setting	-1935
▁student	-1936
▁public	-1937
word	-1938
▁often	-1939
▁conditions	-1940
▁starting	-1941
pace	-1942
iter	-1943
▁short	-1944
▁network	-1945
▁magn	-1946
mit	-1947
▁sto	-1948
▁He	-1949
▁interact	-1950
▁Post	-1951
▁standard	-1952
aching	-1953
itu	-1954
▁body	-1955
▁validate	-1956
▁classes	-1957
ties	-1958
▁integr	-1959
▁see	-1960
Cache	-1961
▁architecture	-1962
action	-1963
▁update	-1964
▁corresponding	-1965
}}	-1966
ived	-1967
())	-1968
▁correlation	-1969
wise	-1970
opt	-1971
▁que	-1972
▁hy	-1973
▁maintain	-1974
▁kg	-1975
▁being	-1976
▁report	-1977
▁logic	-1978
with	-1979
itions	-1980
▁words	-1981
▁block	-1982
▁win	-1983
▁land	-1984
acity	-1985
▁exact	-1986
▁Transform	-1987
▁person	-1988
▁constant	-1989
imens	-1990
▁We	-1991
▁===	-1992
▁processes	-1993
ertain	-1994
▁Ch	-1995
mortem	-1996
▁had	-1997
▁postmortem	-1998
▁rest	-1999
▁reproduces	-2000
cription	-2001
▁four	-2002
▁invo	-2003
idempotency	-2004
▁mak	-2005
▁Red	-2006
ventory	-2007
▁patterns	-2008
▁pressure	-2009
Java	-2010
vol	-2011
▁group	-2012
of	-2013
ivity	-2014
<'	-2015
▁items	-2016
hed	-2017
▁sent	-2018
▁!	-2019
▁There	-2020
stract	-2021
▁required	-2022
▁column	-2023
▁Sw	-2024
rror	-2025
▁whether	-2026
▁components	-2027
alth	-2028
▁calculations	-2029
▁iter	-2030
▁day	-2031
rm	-2032
▁wave	-2033
▁necess	-2034
▁Some	-2035
greSQL	-2036
▁Disc	-2037
view	-2038
fromCharCode	-2039
▁PostgreSQL	-2040
orage	-2041
▁think	-2042
anc	-2043
▁coordin	-2044
=\\	-2045
▁ut	-2046
▁ca	-2047
ox	-2048
▁average	-2049
▁verify	-2050
▁Design	-2051
▁limiting	-2052
▁fall	-2053
ily	-2054
▁dou	-2055
▁middle	-2056
▁bulk	-2057
▁hour	-2058
sq	-2059
▁inputs	-2060
▁contin	-2061
ances	-2062
▁events	-2063
ified	-2064
▁fin	-2065
▁want	-2066
nW	-2067
▁project	-2068
▁accept	-2069
inst	-2070
▁measure	-2071
append	-2072
▁retrie	-2073
hemat	-2074
▁Open	-2075
▁soft	-2076
▁thread	-2077
▁child	-2078
roll	-2079
▁fun	-2080
rypt	-2081
rangle	-2082
pected	-2083
mail	-2084
At	-2085
(),	-2086
less	-2087
▁dr	-2088
odes	-2089
▁develop	-2090
▁defines	-2091
▁angle	-2092
▁recur	-2093
ood	-2094
>>	-2095
mid	-2096
ormal	-2097
ug	-2098
▁very	-2099
▁commun	-2100
▁cost	-2101
shifted	-2102
▁filtering	-2103
▁My	-2104
**	-2105
▁ensuring	-2106
cast	-2107
ople	-2108
▁days	-2109
▁edge	-2110
urther	-2111
▁unique	-2112
▁super	-2113
ences	-2114
arget	-2115
▁node	-2116
▁checks	-2117
strategy	-2118
sor	-2119
}{\\	-2120
▁properties	-2121
collect	-2122
▁correctly	-2123
▁describ	-2124
▁default	-2125
▁server	-2126
▁view	-2127
▁sco	-2128
▁generate	-2129
▁Discuss	-2130
▁frequ	-2131
sqrt	-2132
▁extends	-2133
▁various	-2134
));\	-2135
dered	-2136
]);\	-2137
eta	-2138
▁hum	-2139
API	-2140
raction	-2141
▁rat	-2142
▁nested	-2143
Upper	-2144
▁scen	-2145
iled	-2146
▁less	-2147
▁around	-2148
▁zero	-2149
▁arguments	-2150
▁replace	-2151
ium	-2152
ither	-2153
▁depth	-2154
stru	-2155
▁conne	-2156
▁TypeScript	-2157
ga	-2158
air	-2159
psi	-2160
▁amount	-2161
▁Che	-2162
gest	-2163
▁years	-2164
by	-2165
▁pipeline	-2166
▁tracking	-2167
▁Redis	-2168
ceed	-2169
Con	-2170
("	-2171
▁prov	-2172
ples	-2173
▁tool	-2174
`.	-2175
man	-2176
▁equations	-2177
▁occur	-2178
▁look	-2179
ense	-2180
off	-2181
▁processed	-2182
▁arr	-2183
▁sorting	-2184
▁original	-2185
ysis	-2186
▁except	-2187
after	-2188
▁divis	-2189
▁docu	-2190
▁managing	-2191
ament	-2192
▁those	-2193
▁bre	-2194
▁improve	-2195
▁vect	-2196
js	-2197
emon	-2198
▁showing	-2199
ght	-2200
irt	-2201
bit	-2202
begin	-2203
▁simple	-2204
ched	-2205
▁link	-2206
▁binary	-2207
▁mathemat	-2208
arly	-2209
▁latency	-2210
inct	-2211
method	-2212
▁able	-2213
▁cover	-2214
▁------	-2215
Input	-2216
▁health	-2217
level	-2218
▁require	-2219
for	-2220
▁bal	-2221
▁email	-2222
▁did	-2223
▁strate	-2224
aving	-2225
ape	-2226
▁best	-2227
▁people	-2228
▁turn	-2229
verser	-2230
▁concurrent	-2231
charCode	-2232
oss	-2233
▁free	-2234
▁Map	-2235
izer	-2236
ok	-2237
ensor	-2238
ster	-2239
sum	-2240
rint	-2241
▁scal	-2242
▁miss	-2243
▁So	-2244
▁particle	-2245
sequ	-2246
▁encode	-2247
▁queue	-2248
▁includes	-2249
ager	-2250
imes	-2251
▁Note	-2252
▁cy	-2253
▁draw	-2254
▁prec	-2255
iles	-2256
▁third	-2257
pec	-2258
▁diag	-2259
▁writes	-2260
▁adv	-2261
uple	-2262
▁der	-2263
▁dire	-2264
▁square	-2265
nu	-2266
ously	-2267
▁select	-2268
^{\\	-2269
▁indic	-2270
RI	-2271
▁Ans	-2272
▁sorted	-2273
pi	-2274
▁management	-2275
▁However	-2276
▁sat	-2277
▁layout	-2278
▁determine	-2279
Lower	-2280
▁heat	-2281
ounter	-2282
ternate	-2283
▁Wh	-2284
az	-2285
▁images	-2286
▁Demon	-2287
asks	-2288
▁Ar	-2289
Factory	-2290
▁interest	-2291
agger	-2292
▁cards	-2293
▁systems	-2294
▁mole	-2295
▁resist	-2296
arr	-2297
▁Let	-2298
greg	-2299
ools	-2300
▁motion	-2301
▁appear	-2302
▁training	-2303
▁true	-2304
▁Demonstrate	-2305
▁say	-2306
ashMap	-2307
▁$$	-2308
▁special	-2309
AT	-2310
load	-2311
▁App	-2312
ilities	-2313
▁transformation	-2314
alse	-2315
day	-2316
bal	-2317
▁seem	-2318
acter	-2319
Ex	-2320
▁visual	-2321
ivid	-2322
▁safe	-2323
▁mer	-2324
Process	-2325
nces	-2326
cent	-2327
▁bot	-2328
▁autom	-2329
gment	-2330
ring	-2331
hel	-2332
▁defin	-2333
TP	-2334
▁against	-2335
▁reason	-2336
▁But	-2337
▁radius	-2338
▁distinct	-2339
tep	-2340
▁war	-2341
fully	-2342
▁split	-2343
▁exactly	-2344
▁accord	-2345
▁distributed	-2346
▁gr	-2347
yze	-2348
▁framework	-2349
rust	-2350
boxed	-2351
${	-2352
▁try	-2353
▁benef	-2354
▁models	-2355
eter	-2356
▁law	-2357
▁users	-2358
loy	-2359
▁caching	-2360
▁store	-2361
▁AI	-2362
▁account	-2363
▁occ	-2364
▁When	-2365
▁backward	-2366
▁formul	-2367
▁Answer	-2368
▁ord	-2369
▁double	-2370
▁+=	-2371
▁physics	-2372
▁moment	-2373
log	-2374
▁chall	-2375
▁,	-2376
▁wav	-2377
▁sec	-2378
▁creating	-2379
▁analysis	-2380
▁bound	-2381
▁loop	-2382
atible	-2383
tle	-2384
ged	-2385
▁target	-2386
test	-2387
▁book	-2388
sub	-2389
iod	-2390
▁might	-2391
▁...	-2392
icle	-2393
dep	-2394
ports	-2395
mathbf	-2396
Transformation	-2397
▁Self	-2398
charCodeAt	-2399
->	-2400
ife	-2401
▁loading	-2402
▁learning	-2403
▁concept	-2404
▁accumul	-2405
▁package	-2406
▁increasing	-2407
chie	-2408
▁virt	-2409
ange	-2410
▁date	-2411
▁Qu	-2412
▁home	-2413
▁At	-2414
icing	-2415
');\	-2416
nA	-2417
▁either	-2418
icult	-2419
▁description	-2420
ndef	-2421
▁states	-2422
nThe	-2423
▁levels	-2424
equ	-2425
▁rows	-2426
▁IP	-2427
▁memory	-2428
▁made	-2429
▁dev	-2430
▁factor	-2431
ull	-2432
▁Add	-2433
def	-2434
mpt	-2435
aa	-2436
▁implements	-2437
▁lists	-2438
▁trade	-2439
▁due	-2440
▁depend	-2441
way	-2442
▁action	-2443
uby	-2444
li	-2445
▁tick	-2446
▁ge	-2447
▁generated	-2448
▁dom	-2449
ole	-2450
aced	-2451
▁individ	-2452
ouse	-2453
osing	-2454
▁relationships	-2455
▁parameter	-2456
ade	-2457
▁pairs	-2458
▁achie	-2459
▁dataset	-2460
▁scenari	-2461
▁flu	-2462
▁term	-2463
▁boo	-2464
▁middleware	-2465
file	-2466
▁Do	-2467
ser	-2468
▁good	-2469
▁crit	-2470
▁As	-2471
▁Un	-2472
▁now	-2473
vector	-2474
▁&[	-2475
▁understanding	-2476
hour	-2477
py	-2478
▁princ	-2479
peration	-2480
module	-2481
▁certain	-2482
ccess	-2483
▁aggreg	-2484
▁strategies	-2485
ways	-2486
oci	-2487
▁exceed	-2488
▁market	-2489
ilt	-2490
▁avoid	-2491
-\\	-2492
eded	-2493
npublic	-2494
▁defined	-2495
oy	-2496
hing	-2497
pre	-2498
▁source	-2499
▁List	-2500
▁!=	-2501
ond	-2502
▁difficult	-2503
▁est	-2504
osite	-2505
▁terms	-2506
▁theory	-2507
▁dimens	-2508
▁queries	-2509
▁nodes	-2510
▁probability	-2511
wn	-2512
service	-2513
▁opp	-2514
▁open	-2515
▁fet	-2516
▁generates	-2517
phab	-2518
})	-2519
▁"""	-2520
▁virtual	-2521
oot	-2522
cos	-2523
side	-2524
▁moder	-2525
▁define	-2526
Error	-2527
▁individual	-2528
▁moving	-2529
▁publ	-2530
CSS	-2531
▁price	-2532
dd	-2533
▁None	-2534
▁expand	-2535
▁optional	-2536
▁additional	-2537
▁lead	-2538
iting	-2539
JavaScript	-2540
SV	-2541
▁fund	-2542
▁collect	-2543
▁triangle	-2544
▁vert	-2545
ane	-2546
▁material	-2547
▁et	-2548
ires	-2549
ories	-2550
^\\	-2551
▁remove	-2552
theta	-2553
volution	-2554
cal	-2555
▁optimal	-2556
▁practical	-2557
='	-2558
{}.	-2559
idth	-2560
▁screen	-2561
▁counter	-2562
alk	-2563
▁ms	-2564
▁cells	-2565
▁Ens	-2566
▁pur	-2567
▁vide	-2568
▁volume	-2569
."	-2570
▁counts	-2571
ensity	-2572
▁OpenAPI	-2573
▁goes	-2574
acy	-2575
▁glo	-2576
▁sets	-2577
▁Transformation	-2578
actor	-2579
▁since	-2580
mark	-2581
javascript	-2582
▁avail	-2583
▁necessary	-2584
nS	-2585
ank	-2586
▁grow	-2587
▁period	-2588
▁compar	-2589
anced	-2590
▁twice	-2591
arrow	-2592
compatible	-2593
▁Ensure	-2594
▁drop	-2595
▁rollback	-2596
▁our	-2597
▁compute	-2598
▁Earth	-2599
date	-2600
ars	-2601
oose	-2602
▁settings	-2603
first	-2604
▁bel	-2605
▁calculation	-2606
bb	-2607
mbol	-2608
lock	-2609
▁demonstr	-2610
▁resource	-2611
ync	-2612
▁port	-2613
andler	-2614
exports	-2615
▁UI	-2616
▁adj	-2617
ishing	-2618
▁direction	-2619
ety	-2620
▁needed	-2621
▁theore	-2622
▁box	-2623
cap	-2624
▁structures	-2625
▁pres	-2626
optim	-2627
phism	-2628
book	-2629
ients	-2630
▁charges	-2631
▁usage	-2632
▁representing	-2633
▁modern	-2634
▁javascript	-2635
▁convers	-2636
array	-2637
mpotent	-2638
▁dark	-2639
▁idempotent	-2640
▁rollout	-2641
igh	-2642
▁multipl	-2643
uppercase	-2644
encies	-2645
rong	-2646
▁chr	-2647
▁paths	-2648
miss	-2649
transformer	-2650
ries	-2651
▁evalu	-2652
amma	-2653
nmodule	-2654
▁ste	-2655
▁tog	-2656
▁cate	-2657
▁[[	-2658
▁normal	-2659
▁commands	-2660
▁travel	-2661
instance	-2662
▁acceleration	-2663
▁low	-2664
ications	-2665
▁gated	-2666
▁glass	-2667
▁accur	-2668
ivate	-2669
▁still	-2670
ought	-2671
▁invol	-2672
▁somet	-2673
nfunction	-2674
value	-2675
medi	-2676
Step	-2677
isf	-2678
abl	-2679
▁webh	-2680
rap	-2681
ext	-2682
▁ways	-2683
oder	-2684
▁argument	-2685
▁follows	-2686
itude	-2687
'.	-2688
([	-2689
▁partial	-2690
▁human	-2691
▁testing	-2692
▁etc	-2693
lections	-2694
▁scale	-2695
>(	-2696
▁($	-2697
UD	-2698
enu	-2699
kn	-2700
ifies	-2701
morphism	-2702
▁Shifter	-2703
▁built	-2704
▁approx	-2705
](	-2706
▁success	-2707
istics	-2708
▁cannot	-2709
▁sample	-2710
▁digital	-2711
rolling	-2712
ey	-2713
▁minutes	-2714
▁world	-2715
ilter	-2716
▁map	-2717
ocks	-2718
▁employ	-2719
▁options	-2720
▁dig	-2721
iency	-2722
▁transitions	-2723
▁tok	-2724
▁enem	-2725
▁uses	-2726
▁Reverse	-2727
))\	-2728
eting	-2729
▁vector	-2730
▁Gener	-2731
ervation	-2732
▁present	-2733
▁below	-2734
▁formula	-2735
▁idx	-2736
▁moves	-2737
▁greater	-2738
▁effic	-2739
▁synt	-2740
▁unt	-2741
▁arrays	-2742
_\\	-2743
sion	-2744
▁rece	-2745
del	-2746
▁always	-2747
▁imports	-2748
hens	-2749
▁Function	-2750
▁movement	-2751
▁Then	-2752
omega	-2753
▁efficiently	-2754
RIA	-2755
mmet	-2756
▁atom	-2757
▁transactions	-2758
▁video	-2759
▁doesn	-2760
▁$(	-2761
▁--	-2762
▁missing	-2763
▁tasks	-2764
▁combined	-2765
offs	-2766
▁satisf	-2767
▁demonstrate	-2768
ited	-2769
▁ARIA	-2770
igned	-2771
▁observ	-2772
▁ke	-2773
ques	-2774
ren	-2775
▁via	-2776
chron	-2777
ching	-2778
aid	-2779
base	-2780
we	-2781
imal	-2782
▁techn	-2783
▁//	-2784
▁principle	-2785
▁keyboard	-2786
▁CSV	-2787
▁particles	-2788
unique	-2789
▁particular	-2790
optimized	-2791
tered	-2792
▁head	-2793
veal	-2794
ride	-2795
field	-2796
▁week	-2797
reversed	-2798
▁highlight	-2799
▁connected	-2800
▁gravity	-2801
▁foc	-2802
where	-2803
▁compre	-2804
▁pick	-2805
▁Ref	-2806
▁And	-2807
▁happ	-2808
▁him	-2809
ral	-2810
▁extens	-2811
{(	-2812
bs	-2813
owel	-2814
ats	-2815
Python	-2816
▁grace	-2817
quad	-2818
▁mach	-2819
▁status	-2820
igma	-2821
osed	-2822
▁month	-2823
▁deep	-2824
avy	-2825
▁coordinates	-2826
▁denot	-2827
iving	-2828
▁black	-2829
press	-2830
▁To	-2831
▁break	-2832
▁document	-2833
▁Apply	-2834
▁seconds	-2835
▁until	-2836
▁Anal	-2837
osp	-2838
asy	-2839
}(	-2840
▁numer	-2841
▁ran	-2842
lowercase	-2843
▁circ	-2844
▁sty	-2845
▁difficulty	-2846
▁comprehens	-2847
empl	-2848
ology	-2849
▁products	-2850
▁frequency	-2851
fer	-2852
▁Ruby	-2853
ival	-2854
code	-2855
exec	-2856
▁holds	-2857
▁benefit	-2858
rief	-2859
▁known	-2860
niques	-2861
▁further	-2862
come	-2863
ital	-2864
▁convert	-2865
ber	-2866
▁city	-2867
▁bi	-2868
▁{}\	-2869
▁webhook	-2870
▁round	-2871
sol	-2872
▁percent	-2873
▁contact	-2874
▁insert	-2875
▁improvement	-2876
▁working	-2877
▁solutions	-2878
▁fundament	-2879
▁invalid	-2880
▁covering	-2881
▁Sample	-2882
▁ground	-2883
▁building	-2884
$$$.	-2885
stractmethod	-2886
$$\\	-2887
▁rele	-2888
uling	-2889
▁letters	-2890
▁efficiency	-2891
▁lit	-2892
▁mar	-2893
▁Using	-2894
▁Also	-2895
▁electric	-2896
▁reads	-2897
▁StringProcessor	-2898
rho	-2899
osit	-2900
ources	-2901
▁scrolling	-2902
▁digits	-2903
▁someone	-2904
":	-2905
▁auto	-2906
inter	-2907
▁Read	-2908
ctools	-2909
▁examples	-2910
';\	-2911
▁hours	-2912
▁After	-2913
static	-2914
ocol	-2915
ently	-2916
ystem	-2917
▁auth	-2918
▁cour	-2919
▁MySQL	-2920
▁interface	-2921
▁red	-2922
▁rect	-2923
▁increment	-2924
//	-2925
efficient	-2926
▁connection	-2927
▁according	-2928
▁floating	-2929
▁life	-2930
▁signific	-2931
▁students	-2932
▁mic	-2933
apply	-2934
▁starts	-2935
▁divide	-2936
ivers	-2937
ionally	-2938
▁upper	-2939
▁nat	-2940
▁marked	-2941
ont	-2942
ocker	-2943
▁persist	-2944
andle	-2945
▁km	-2946
▁detect	-2947
▁backend	-2948
▁functools	-2949
▁represents	-2950
strategies	-2951
▁stick	-2952
▁Fl	-2953
CH	-2954
▁available	-2955
sec	-2956
▁techniques	-2957
gen	-2958
emp	-2959
▁updates	-2960
lambda	-2961
▁rule	-2962
▁continu	-2963
alind	-2964
▁ask	-2965
▁infin	-2966
ante	-2967
iding	-2968
textbf	-2969
add	-2970
make	-2971
▁charge	-2972
▁details	-2973
ifier	-2974
roc	-2975
▁core	-2976
▁sure	-2977
transformed	-2978
▁tile	-2979
▁complet	-2980
▁late	-2981
tailed	-2982
Al	-2983
▁hor	-2984
.,	-2985
▁fam	-2986
▁inventory	-2987
duct	-2988
▁Si	-2989
ilar	-2990
▁affect	-2991
illing	-2992
ying	-2993
▁lru	-2994
▁detailed	-2995
▁tuple	-2996
▁features	-2997
▁food	-2998
pop	-2999
▁far	-3000
▁friction	-3001
▁Val	-3002
▁smell	-3003
▁deque	-3004
execute	-3005
▁brief	-3006
▁higher	-3007
cing	-3008
▁something	-3009
▁Explanation	-3010
▁controls	-3011
▁accessible	-3012
rement	-3013
▁worker	-3014
Res	-3015
▁interval	-3016
▁sal	-3017
▁physical	-3018
merce	-3019
▁Refactor	-3020
arante	-3021
▁tab	-3022
▁dest	-3023
▁rust	-3024
▁scope	-3025
ead	-3026
comes	-3027
ather	-3028
▁hist	-3029
▁record	-3030
delta	-3031
▁bott	-3032
)\\	-3033
▁never	-3034
▁iss	-3035
digit	-3036
resh	-3037
vowels	-3038
inated	-3039
commerce	-3040
▁Ret	-3041
world	-3042
▁layer	-3043
mand	-3044
section	-3045
nipp	-3046
▁guarante	-3047
times	-3048
▁q	-3049
▁magnetic	-3050
oding	-3051
▁exists	-3052
▁Up	-3053
▁item	-3054
known	-3055
▁mill	-3056
▁rotation	-3057
▁**	-3058
▁balance	-3059
alf	-3060
▁expression	-3061
ml	-3062
##	-3063
▁execution	-3064
vert	-3065
(((	-3066
▁bool	-3067
▁pool	-3068
\)	-3069
▁These	-3070
▁basic	-3071
▁molecul	-3072
▁attributes	-3073
▁State	-3074
▁really	-3075
▁general	-3076
ison	-3077
upp	-3078
ilon	-3079
emo	-3080
▁allows	-3081
▁rob	-3082
▁pi	-3083
oggle	-3084
ncy	-3085
▁give	-3086
▁representation	-3087
▁appoint	-3088
struction	-3089
▁snipp	-3090
▁subsequ	-3091
▁explanation	-3092
ES	-3093
▁already	-3094
ything	-3095
▁distribution	-3096
npub	-3097
ivery	-3098
ka	-3099
▁approxim	-3100
▁labels	-3101
▁coins	-3102
oud	-3103
ames	-3104
▁keep	-3105
inks	-3106
mplify	-3107
fect	-3108
▁prints	-3109
fix	-3110
ned	-3111
beta	-3112
▁Game	-3113
▁accumulator	-3114
▁stored	-3115
curity	-3116
▁override	-3117
ological	-3118
▁requires	-3119
▁delivery	-3120
cc	-3121
▁trend	-3122
▁caus	-3123
)^	-3124
▁global	-3125
▁reading	-3126
ury	-3127
▁definition	-3128
▁coefficient	-3129
▁choose	-3130
▁circle	-3131
▁density	-3132
ee	-3133
▁sentence	-3134
▁experiment	-3135
▁identify	-3136
iverse	-3137
acing	-3138
▁async	-3139
▁attribute	-3140
://	-3141
▁Print	-3142
sigma	-3143
Auth	-3144
▁means	-3145
▁HTTP	-3146
▁choice	-3147
▁nature	-3148
▁Analyze	-3149
▁won	-3150
▁Check	-3151
▁spin	-3152
rue	-3153
type	-3154
any	-3155
▁gall	-3156
▁syn	-3157
▁board	-3158
▁natural	-3159
▁parent	-3160
WT	-3161
zz	-3162
▁Code	-3163
▁All	-3164
▁wrong	-3165
ography	-3166
ometric	-3167
▁tag	-3168
▁once	-3169
▁operator	-3170
▁Server	-3171
azy	-3172
▁grad	-3173
▁segment	-3174
helper	-3175
▁communication	-3176
Output	-3177
ographic	-3178
▁sug	-3179
▁CR	-3180
▁diagram	-3181
ering	-3182
▁similar	-3183
vious	-3184
▁introdu	-3185
▁symmet	-3186
▁expected	-3187
▁gas	-3188
itor	-3189
▁seems	-3190
processed	-3191
▁requirements	-3192
▁seen	-3193
▁focus	-3194
▁Rust	-3195
▁own	-3196
land	-3197
▁respectively	-3198
itle	-3199
▁reference	-3200
▁Cons	-3201
▁replay	-3202
mediate	-3203
wh	-3204
▁gracefully	-3205
▁statement	-3206
▁old	-3207
State	-3208
▁critical	-3209
▁regular	-3210
▁clu	-3211
▁rules	-3212
▁sound	-3213
▁said	-3214
▁wall	-3215
▁HashMap	-3216
▁scr	-3217
state	-3218
▁occas	-3219
▁push	-3220
▁inher	-3221
▁poly	-3222
param	-3223
▁initialize	-3224
▁responsive	-3225
▁''\	-3226
ABC	-3227
▁gen	-3228
▁cut	-3229
▁impact	-3230
▁throw	-3231
▁hard	-3232
encode	-3233
▁development	-3234
▁sever	-3235
▁capacity	-3236
placement	-3237
iece	-3238
▁paid	-3239
▁obtain	-3240
▁notification	-3241
▁loss	-3242
▁toggle	-3243
▁groc	-3244
▁Eng	-3245
▁cursor	-3246
erve	-3247
▁hover	-3248
▁parsing	-3249
>,\	-3250
▁minimal	-3251
▁great	-3252
▁fundamental	-3253
▁appointments	-3254
▁setup	-3255
▁soc	-3256
▁makes	-3257
▁horiz	-3258
▁invoices	-3259
▁JWT	-3260
ience	-3261
▁mathematical	-3262
▁OAuth	-3263
▁challeng	-3264
aut	-3265
▁&'	-3266
▁click	-3267
late	-3268
▁writing	-3269
▁role	-3270
PAT	-3271
▁separated	-3272
inci	-3273
▁ax	-3274
▁br	-3275
^{-	-3276
▁bus	-3277
▁Res	-3278
▁bro	-3279
▁author	-3280
`:	-3281
▁publishing	-3282
▁sch	-3283
▁columns	-3284
$$$,	-3285
▁resulting	-3286
▁media	-3287
ShiftStrategy	-3288
▁itself	-3289
screen	-3290
▁dise	-3291
gory	-3292
ann	-3293
atically	-3294
▁train	-3295
▁execut	-3296
uture	-3297
▁otherwise	-3298
▁matter	-3299
etter	-3300
▁machine	-3301
▁enemy	-3302
capacity	-3303
▁making	-3304
▁Grid	-3305
temp	-3306
inciples	-3307
elength	-3308
rency	-3309
▁discuss	-3310
▁marketplace	-3311
work	-3312
▁locking	-3313
▁((	-3314
▁momentum	-3315
▁adding	-3316
▁Opt	-3317
▁password	-3318
▁needs	-3319
▁Return	-3320
▁quad	-3321
▁infinite	-3322
▁micro	-3323
▁skill	-3324
▁areas	-3325
▁duplicated	-3326
▁room	-3327
▁Develop	-3328
parent	-3329
▁stream	-3330
▁associ	-3331
rain	-3332
▁Here	-3333
▁population	-3334
xy	-3335
▁sizes	-3336
ivide	-3337
ptr	-3338
▁Upper	-3339
▁seat	-3340
▁raise	-3341
▁grocery	-3342
anager	-3343
▁forces	-3344
▁divisible	-3345
▁flash	-3346
lt	-3347
▁hero	-3348
mathrm	-3349
▁compress	-3350
second	-3351
osition	-3352
▁retrieve	-3353
▁eleg	-3354
▁wants	-3355
▁significant	-3356
▁achieve	-3357
▁glassmorphism	-3358
▁principles	-3359
▁wavelength	-3360
▁transformations	-3361
ube	-3362
▁On	-3363
▁mus	-3364
▁consists	-3365
▁patients	-3366
▁blocks	-3367
▁storage	-3368
aster	-3369
▁done	-3370
▁age	-3371
▁enh	-3372
▁palind	-3373
▁No	-3374
▁toget	-3375
▁together	-3376
depend	-3377
atter	-3378
mar	-3379
sin	-3380
▁conversion	-3381
ET	-3382
PU	-3383
▁hit	-3384
empty	-3385
mathbb	-3386
▁series	-3387
▁atm	-3388
ret	-3389
tocol	-3390
apt	-3391
tex	-3392
ository	-3393
order	-3394
Storage	-3395
▁resistance	-3396
▁several	-3397
tical	-3398
▁security	-3399
▁Z	-3400
mply	-3401
▁[-	-3402
gamma	-3403
▁regions	-3404
▁coordination	-3405
▁incor	-3406
▁increase	-3407
▁docs	-3408
flo	-3409
▁Swagger	-3410
▁ev	-3411
]]	-3412
oh	-3413
▁Se	-3414
▁fig	-3415
▁analy	-3416
aaS	-3417
▁ang	-3418
▁Case	-3419
▁DP	-3420
aves	-3421
PATCH	-3422
▁Update	-3423
▁Generate	-3424
nM	-3425
▁ShiftStrategy	-3426
wards	-3427
aded	-3428
ikes	-3429
▁letter	-3430
▁modules	-3431
▁applications	-3432
car	-3433
▁parse	-3434
mplete	-3435
▁tell	-3436
ious	-3437
▁assert	-3438
Shifter	-3439
▁bottom	-3440
next	-3441
▁mechanism	-3442
ogle	-3443
▁SaaS	-3444
▁selection	-3445
▁retries	-3446
iness	-3447
ordered	-3448
▁collision	-3449
▁appears	-3450
▁center	-3451
▁profess	-3452
▁collection	-3453
▁leg	-3454
▁indices	-3455
▁optimistic	-3456
processing	-3457
▁repl	-3458
▁localStorage	-3459
acking	-3460
▁snippet	-3461
▁ticketing	-3462
uffer	-3463
▁property	-3464
▁\).	-3465
▁save	-3466
▁scroll	-3467
▁implementing	-3468
▁road	-3469
▁spaces	-3470
pr	-3471
▁checking	-3472
pped	-3473
▁statistics	-3474
+\\	-3475
▁har	-3476
▁put	-3477
aches	-3478
▁gover	-3479
():\	-3480
▁site	-3481
vider	-3482
▁Examples	-3483
▁versions	-3484
Del	-3485
}-	-3486
▁shifter	-3487
▁expressions	-3488
▁configurable	-3489
▁synchron	-3490
▁und	-3491
afka	-3492
())\	-3493
▁comprehensive	-3494
▁few	-3495
▁py	-3496
▁algorithms	-3497
▁scratch	-3498
▁too	-3499
adata	-3500
▁bit	-3501
▁calculates	-3502
▁Handle	-3503
▁emb	-3504
▁quadr	-3505
){\	-3506
▁provides	-3507
insert	-3508
Result	-3509
▁Kafka	-3510
▁handler	-3511
▁thought	-3512
▁phase	-3513
▁gravit	-3514
▁positions	-3515
▁doing	-3516
▁trying	-3517
▁units	-3518
odel	-3519
▁unknown	-3520
▁problems	-3521
Manager	-3522
▁paginated	-3523
}$.	-3524
▁comparison	-3525
▁Consider	-3526
oes	-3527
▁aggregation	-3528
}^	-3529
▁instead	-3530
▁constraints	-3531
eps	-3532
▁dead	-3533
▁attack	-3534
,\\	-3535
▁briefly	-3536
ER	-3537
▁players	-3538
▁blu	-3539
ums	-3540
▁prote	-3541
▁Express	-3542
por	-3543
▁stop	-3544
▁CRUD	-3545
▁ratio	-3546
$-	-3547
▁Deter	-3548
nB	-3549
ister	-3550
Delta	-3551
lict	-3552
▁taking	-3553
▁exposing	-3554
ises	-3555
sort	-3556
limit	-3557
▁timed	-3558
oper	-3559
▁repe	-3560
▁guess	-3561
▁spikes	-3562
}_	-3563
defined	-3564
▁occasionally	-3565
Cl	-3566
ention	-3567
▁matching	-3568
ished	-3569
▁proced	-3570
▁reservation	-3571
▁Sched	-3572
ledge	-3573
▁prompt	-3574
▁menu	-3575
lived	-3576
}^{	-3577
▁categor	-3578
AM	-3579
▁sticky	-3580
▁plot	-3581
▁cand	-3582
▁domain	-3583
▁green	-3584
nTh	-3585
▁prior	-3586
inations	-3587
▁prefix	-3588
▁quick	-3589
QS	-3590
▁modify	-3591
▁gallery	-3592
▁hole	-3593
▁piece	-3594
▁gradient	-3595
tt	-3596
langle	-3597
provider	-3598
▁sn	-3599
▁Delete	-3600
▁share	-3601
▁Scheduling	-3602
uzz	-3603
Create	-3604
▁Compute	-3605
▁device	-3606
▁Inventory	-3607
▁remaining	-3608
Ar	-3609
tic	-3610
▁failover	-3611
▁edges	-3612
▁token	-3613
▁es	-3614
Reverse	-3615
sale	-3616
▁dimensions	-3617
onal	-3618
▁New	-3619
▁directly	-3620
like	-3621
▁conflict	-3622
▁strong	-3623
▁By	-3624
ares	-3625
▁entire	-3626
matrix	-3627
qquad	-3628
booked	-3629
▁popup	-3630
Type	-3631
▁linear	-3632
▁Checkout	-3633
▁SQS	-3634
isions	-3635
▁Determine	-3636
body	-3637
▁disease	-3638
▁simul	-3639
▁\[	-3640
▁practices	-3641
▁becomes	-3642
▁URLs	-3643
▁shape	-3644
▁util	-3645
▁meaning	-3646
▁clim	-3647
▁approximately	-3648
▁having	-3649
usize	-3650
oses	-3651
▁tasked	-3652
▁determin	-3653
▁relation	-3654
▁enough	-3655
▁contrib	-3656
asonry	-3657
▁chem	-3658
gra	-3659
▁idempotency	-3660
ips	-3661
my	-3662
▁invoicing	-3663
▁feed	-3664
▁Billing	-3665
▁'';\	-3666
▁simulation	-3667
venue	-3668
}$,	-3669
▁social	-3670
▁works	-3671
▁masonry	-3672
heavy	-3673
abilities	-3674
▁allowing	-3675
▁electrons	-3676
▁choices	-3677
▁services	-3678
▁alloc	-3679
▁stra	-3680
▁ordered	-3681
omen	-3682
The	-3683
player	-3684
▁running	-3685
▁Could	-3686
▁nu	-3687
ern	-3688
▁news	-3689
▁assume	-3690
ball	-3691
unk	-3692
▁questions	-3693
▁symbol	-3694
▁reach	-3695
▁Py	-3696
▁important	-3697
rices	-3698
▁division	-3699
ah	-3700
}=	-3701
▁deb	-3702
▁scre	-3703
filter	-3704
▁belie	-3705
▁article	-3706
▁deriv	-3707
}$$\	-3708
▁computing	-3709
iply	-3710
Node	-3711
mission	-3712
▁reasoning	-3713
▁swit	-3714
▁sle	-3715
}`	-3716
flow	-3717
▁encoded	-3718
pot	-3719
CD	-3720
▁metadata	-3721
▁exch	-3722
▁half	-3723
▁Fib	-3724
▁warm	-3725
▁future	-3726
$)	-3727
▁relative	-3728
ipher	-3729
can	-3730
▁vary	-3731
▁fixed	-3732
rightarrow	-3733
▁influ	-3734
▁actually	-3735
sty	-3736
ones	-3737
▁away	-3738
▁though	-3739
▁Fe	-3740
▁related	-3741
▁repository	-3742
▁reflect	-3743
uit	-3744
isms	-3745
▁Pl	-3746
▁customers	-3747
mathcal	-3748
UpperCase	-3749
▁Cho	-3750
▁She	-3751
uck	-3752
imize	-3753
ldots	-3754
fig	-3755
rome	-3756
epsilon	-3757
▁substring	-3758
ww	-3759
nHow	-3760
▁placed	-3761
stack	-3762
bed	-3763
▁Now	-3764
nF	-3765
▁linked	-3766
▁option	-3767
▁cla	-3768
▁going	-3769
▁Def	-3770
▁fore	-3771
▁vowels	-3772
wo	-3773
▁assign	-3774
ream	-3775
▁Google	-3776
▁sess	-3777
nN	-3778
],\	-3779
▁recurse	-3780
wers	-3781
secut	-3782
ored	-3783
▁knowledge	-3784
▁trace	-3785
▁intric	-3786
▁paper	-3787
▁dependencies	-3788
▁lowercase	-3789
▁longest	-3790
▁matrices	-3791
▁maze	-3792
▁elegant	-3793
▁maintaining	-3794
vis	-3795
islower	-3796
▁revenue	-3797
▁yield	-3798
▁Box	-3799
▁review	-3800
▁persistence	-3801
▁forward	-3802
▁interpre	-3803
oney	-3804
▁lives	-3805
▁vertices	-3806
▁course	-3807
▁[&	-3808
▁expon	-3809
▁allowed	-3810
▁interactive	-3811
LE	-3812
sl	-3813
▁Flask	-3814
▁profile	-3815
▁lik	-3816
▁resol	-3817
itution	-3818
▁precision	-3819
ple	-3820
▁fluid	-3821
==	-3822
▁atmosp	-3823
▁parts	-3824
▁encrypt	-3825
find	-3826
▁early	-3827
▁permut	-3828
▁described	-3829
▁cou	-3830
▁formatted	-3831
▁growth	-3832
▁admin	-3833
separ	-3834
|\\	-3835
▁perfect	-3836
PS	-3837
▁equival	-3838
▁suggest	-3839
▁odd	-3840
lish	-3841
▁scenarios	-3842
▁null	-3843
▁decre	-3844
▁links	-3845
▁Na	-3846
ithmetic	-3847
▁extension	-3848
▁Choices	-3849
▁Me	-3850
▁capt	-3851
▁pad	-3852
▁professional	-3853
▁accuracy	-3854
ploy	-3855
▁shared	-3856
▁label	-3857
rot	-3858
▁ABC	-3859
sw	-3860
▁integral	-3861
▁smallest	-3862
▁Lower	-3863
allax	-3864
▁proport	-3865
rant	-3866
▁star	-3867
▁creation	-3868
▁parallax	-3869
▁largest	-3870
▁books	-3871
Key	-3872
▁secure	-3873
▁screens	-3874
▁Swift	-3875
▁True	-3876
▁gravitational	-3877
LowerCase	-3878
irror	-3879
▁displacement	-3880
▁stri	-3881
▁friends	-3882
▁monit	-3883
▁generation	-3884
▁They	-3885
vant	-3886
quer	-3887
abor	-3888
)>	-3889
▁prop	-3890
ists	-3891
rivate	-3892
▁regist	-3893
idence	-3894
OR	-3895
▁decomp	-3896
▁title	-3897
▁transfer	-3898
▁transformers	-3899
▁quadratic	-3900
▁width	-3901
▁Supp	-3902
▁groups	-3903
▁wire	-3904
grees	-3905
Handler	-3906
▁scenario	-3907
▁implemented	-3908
class	-3909
▁multiplication	-3910
estion	-3911
▁ess	-3912
emplace	-3913
▁software	-3914
▁chain	-3915
cpp	-3916
▁exit	-3917
▁absor	-3918
astic	-3919
ites	-3920
den	-3921
▁produce	-3922
currency	-3923
ising	-3924
▁got	-3925
▁sense	-3926
isupper	-3927
fty	-3928
▁music	-3929
idered	-3930
▁century	-3931
▁ic	-3932
▁considered	-3933
LI	-3934
▁adjust	-3935
▁medium	-3936
floor	-3937
aten	-3938
▁degrees	-3939
▁reduced	-3940
▁shown	-3941
▁spending	-3942
▁yet	-3943
ents	-3944
▁Sp	-3945
▁disk	-3946
nprivate	-3947
▁represented	-3948
▁please	-3949
▁sens	-3950
▁created	-3951
▁horizon	-3952
shared	-3953
ili	-3954
ured	-3955
▁reveal	-3956
▁Space	-3957
▁...,	-3958
phabetic	-3959
secutive	-3960
Recursive	-3961
orator	-3962
▁mag	-3963
Val	-3964
▁hyd	-3965
▁il	-3966
▁come	-3967
▁subt	-3968
▁ve	-3969
infty	-3970
▁interacts	-3971
clone	-3972
▁contra	-3973
▁[&](	-3974
▁ability	-3975
Chars	-3976
htt	-3977
▁exception	-3978
igen	-3979
▁challenges	-3980
bon	-3981
unc	-3982
▁First	-3983
▁decide	-3984
▁safety	-3985
▁buy	-3986
build	-3987
▁cycle	-3988
▁begin	-3989
nSo	-3990
▁Ind	-3991
vari	-3992
nIf	-3993
▁guaranteed	-3994
▁arithmetic	-3995
erc	-3996
▁concepts	-3997
▁aud	-3998
separated	-3999
▁sends	-4000
▁sequences	-4001
).\	-4002
omial	-4003
▁enumer	-4004
▁face	-4005
▁mov	-4006
▁friend	-4007
▁concurrency	-4008
▁optimize	-4009
▁ever	-4010
otes	-4011
▁sil	-4012
mitives	-4013
▁memb	-4014
▁Ob	-4015
Operation	-4016
umber	-4017
▁Evalu	-4018
nIn	-4019
▁primitives	-4020
amer	-4021
▁larger	-4022
▁enable	-4023
ditional	-4024
▁\),	-4025
ds	-4026
▁functional	-4027
▁Expected	-4028
▁threads	-4029
▁meters	-4030
▁modified	-4031
}`;\	-4032
▁school	-4033
orth	-4034
▁Thus	-4035
▁altern	-4036
▁computer	-4037
▁interaction	-4038
▁filled	-4039
▁care	-4040
▁vertex	-4041
▁Test	-4042
▁void	-4043
▁Or	-4044
▁pain	-4045
▁location	-4046
▁later	-4047
▁goal	-4048
▁cloud	-4049
▁suite	-4050
▁English	-4051
▁house	-4052
izations	-4053
▁accelerates	-4054
▁Ph	-4055
inally	-4056
▁radiation	-4057
▁abc	-4058
more	-4059
rigg	-4060
search	-4061
▁neural	-4062
inetic	-4063
▁tower	-4064
▁Mult	-4065
ront	-4066
▁cached	-4067
▁predefined	-4068
")	-4069
▁displays	-4070
iling	-4071
▁One	-4072
▁plugin	-4073
▁||	-4074
▁associated	-4075
▁smaller	-4076
▁cpp	-4077
▁anything	-4078
rence	-4079
▁sched	-4080
▁serial	-4081
move	-4082
▁viol	-4083
▁predi	-4084
▁tensor	-4085
ses	-4086
gments	-4087
▁protocol	-4088
▁kil	-4089
▁notation	-4090
▁vib	-4091
▁followed	-4092
▁rend	-4093
▁($$$	-4094
▁Form	-4095
▁contract	-4096
args	-4097
▁universe	-4098
▁cult	-4099
▁flat	-4100
▁ce	-4101
▁stress	-4102
▁factors	-4103
▁send	-4104
▁among	-4105
▁buffer	-4106
split	-4107
▁therm	-4108
▁previous	-4109
▁That	-4110
▁addresses	-4111
▁[]\	-4112
▁verifies	-4113
uration	-4114
position	-4115
chmark	-4116
▁calls	-4117
raft	-4118
▁molecules	-4119
create	-4120
▁rather	-4121
isalpha	-4122
ils	-4123
▁clone	-4124
▁illu	-4125
]].	-4126
nMy	-4127
▁False	-4128
▁styles	-4129
dagger	-4130
▁modes	-4131
unordered	-4132
▁planet	-4133
▁automatically	-4134
▁colors	-4135
▁blue	-4136
oth	-4137
\\\	-4138
▁ann	-4139
transformations	-4140
▁behind	-4141
aking	-4142
▁taken	-4143
uns	-4144
ohn	-4145
functional	-4146
▁activ	-4147
▁mirror	-4148
▁layers	-4149
'..	-4150
▁crypt	-4151
▁better	-4152
▁bread	-4153
(-	-4154
▁added	-4155
▁conflicts	-4156
▁sections	-4157
)=	-4158
▁`${	-4159
▁reduce	-4160
▁sending	-4161
ID	-4162
▁relat	-4163
▁skip	-4164
*,	-4165
▁orbit	-4166
▁theorem	-4167
▁rates	-4168
▁deploy	-4169
▁decimal	-4170
▁near	-4171
▁ear	-4172
▁Why	-4173
▁nucle	-4174
▁scient	-4175
nWhat	-4176
wrap	-4177
▁bran	-4178
'..='	-4179
▁Process	-4180
▁cm	-4181
ighb	-4182
▁behaves	-4183
▁plane	-4184
AB	-4185
urb	-4186
▁equil	-4187
▁Inter	-4188
▁actions	-4189
width	-4190
▁colorful	-4191
ogn	-4192
estamp	-4193
▁mapping	-4194
▁kind	-4195
Pro	-4196
▁completely	-4197
▁resources	-4198
▁issues	-4199
▁trends	-4200
▁money	-4201
▁kinetic	-4202
▁Evaluate	-4203
▁easy	-4204
)}\	-4205
anks	-4206
▁neut	-4207
▁spect	-4208
▁transl	-4209
▁coordinate	-4210
loading	-4211
▁false	-4212
And	-4213
ancing	-4214
▁exh	-4215
comm	-4216
▁phen	-4217
▁extra	-4218
▁abst	-4219
▁become	-4220
quid	-4221
▁Cache	-4222
ux	-4223
▁performs	-4224
▁pus	-4225
apse	-4226
▁Com	-4227
enge	-4228
▁typically	-4229
▁host	-4230
phabet	-4231
▁adapt	-4232
AS	-4233
▁exceptions	-4234
▁Reverser	-4235
acci	-4236
HashMap	-4237
etime	-4238
▁constants	-4239
ights	-4240
="	-4241
ED	-4242
▁concent	-4243
▁slow	-4244
▁varying	-4245
▁offset	-4246
count	-4247
rogen	-4248
rams	-4249
▁mount	-4250
▁fac	-4251
uzzle	-4252
▁optimization	-4253
▁(!	-4254
ynomial	-4255
▁factory	-4256
tag	-4257
▁gives	-4258
>)	-4259
abla	-4260
▁photon	-4261
▁calculated	-4262
onacci	-4263
lying	-4264
▁connections	-4265
▁Enc	-4266
▁denoting	-4267
▁bars	-4268
conom	-4269
izable	-4270
▁transformedChar	-4271
▁thresh	-4272
$\	-4273
nabla	-4274
▁AS	-4275
▁jump	-4276
▁embed	-4277
lean	-4278
rete	-4279
▁white	-4280
▁intricate	-4281
alternate	-4282
sp	-4283
▁reaction	-4284
▁Docker	-4285
▁absol	-4286
▁subst	-4287
▁landing	-4288
▁streng	-4289
▁consisting	-4290
rium	-4291
shifter	-4292
ae	-4293
Ch	-4294
▁personal	-4295
....	-4296
spec	-4297
▁documentation	-4298
algorithm	-4299
▁timer	-4300
limited	-4301
▁establ	-4302
▁experience	-4303
▁exchange	-4304
▁consecutive	-4305
steroid	-4306
dependent	-4307
▁symmetry	-4308
▁CO	-4309
▁sun	-4310
▁polynomial	-4311
abstractmethod	-4312
IN	-4313
▁syntax	-4314
▁tables	-4315
▁trait	-4316
▁respective	-4317
icate	-4318
▁arrow	-4319
TA	-4320
▁whose	-4321
▁operators	-4322
umpt	-4323
▁pict	-4324
▁outputs	-4325
uc	-4326
icles	-4327
▁hol	-4328
▁poss	-4329
▁Cl	-4330
ably	-4331
pired	-4332
▁hash	-4333
▁bold	-4334
unwrap	-4335
uro	-4336
▁returning	-4337
▁Ass	-4338
▁hypot	-4339
pose	-4340
aling	-4341
ials	-4342
▁instru	-4343
▁region	-4344
meric	-4345
gree	-4346
▁partition	-4347
▁lambda	-4348
▁modul	-4349
▁falling	-4350
]$	-4351
Base	-4352
▁interactions	-4353
▁cred	-4354
oll	-4355
mem	-4356
aring	-4357
equation	-4358
▁intermediate	-4359
▁effective	-4360
▁initializes	-4361
osen	-4362
nstd	-4363
utex	-4364
▁Solution	-4365
▁five	-4366
oad	-4367
only	-4368
▁liquid	-4369
jor	-4370
▁leading	-4371
gress	-4372
▁waves	-4373
▁shap	-4374
▁Sim	-4375
nC	-4376
iment	-4377
▁creates	-4378
▁answers	-4379
hbar	-4380
▁elif	-4381
ctu	-4382
tonian	-4383
ferences	-4384
:])\	-4385
faces	-4386
▁company	-4387
▁)	-4388
usion	-4389
ierarch	-4390
▁Other	-4391
▁history	-4392
▁Further	-4393
▁timestamp	-4394
▁collections	-4395
cular	-4396
▁selected	-4397
▁tens	-4398
▁jobs	-4399
▁camer	-4400
si	-4401
dyn	-4402
▁template	-4403
▁synchronization	-4404
OT	-4405
ups	-4406
▁photo	-4407
▁increases	-4408
▁big	-4409
▁datasets	-4410
▁opponent	-4411
▁dictionaries	-4412
▁generating	-4413
▁Chef	-4414
▁relevant	-4415
▁executable	-4416
▁$$\	-4417
iring	-4418
▁neighb	-4419
▁challenge	-4420
lex	-4421
▁pages	-4422
▁trees	-4423
▁SE	-4424
uming	-4425
ifications	-4426
irm	-4427
▁sav	-4428
ingleton	-4429
idator	-4430
ibrium	-4431
▁abstraction	-4432
letter	-4433
▁figure	-4434
cr	-4435
▁scores	-4436
▁equivalent	-4437
▁Spec	-4438
▁wonder	-4439
AC	-4440
$.\	-4441
▁eigen	-4442
▁indicating	-4443
▁phenomen	-4444
▁demonstrates	-4445
memory	-4446
▁particularly	-4447
▁produced	-4448
Go	-4449
▁abstract	-4450
nwhere	-4451
▁feel	-4452
▁tools	-4453
▁thermal	-4454
▁conduct	-4455
ocket	-4456
▁incorpor	-4457
▁formatting	-4458
▁vibrant	-4459
steps	-4460
▁cr	-4461
fl	-4462
zing	-4463
▁says	-4464
▁claim	-4465
▁recomm	-4466
▁situ	-4467
▁remains	-4468
▁hierarch	-4469
▁optimized	-4470
head	-4471
ilit	-4472
▁Math	-4473
')\	-4474
▁vac	-4475
▁species	-4476
▁merge	-4477
collections	-4478
▁rod	-4479
ij	-4480
▁theoretical	-4481
riggered	-4482
son	-4483
▁animations	-4484
stac	-4485
▁adjac	-4486
bserver	-4487
nIs	-4488
amil	-4489
ossible	-4490
▁utility	-4491
▁materials	-4492
erson	-4493
▁responses	-4494
▁indu	-4495
▁Americ	-4496
▁sust	-4497
▁happen	-4498
hetic	-4499
▁online	-4500
▁mis	-4501
▁simpl	-4502
▁rectang	-4503
▁capital	-4504
ocu	-4505
▁Memo	-4506
airs	-4507
▁align	-4508
▁Strategy	-4509
Array	-4510
arter	-4511
▁'');\	-4512
unsigned	-4513
▁chemical	-4514
▁printing	-4515
▁configurations	-4516
▁math	-4517
▁directories	-4518
▁forms	-4519
▁('	-4520
}-${	-4521
handler	-4522
▁registration	-4523
▁FA	-4524
▁axis	-4525
▁classical	-4526
replace	-4527
▁idea	-4528
▁wra	-4529
Examples	-4530
orts	-4531
▁deadlock	-4532
▁ant	-4533
▁entities	-4534
▁absolute	-4535
▁grids	-4536
▁precise	-4537
most	-4538
apsack	-4539
acters	-4540
▁wa	-4541
▁leader	-4542
mot	-4543
umn	-4544
▁weekly	-4545
▁alternate	-4546
gins	-4547
▁statements	-4548
▁sell	-4549
}_{	-4550
ropy	-4551
▁thus	-4552
$?	-4553
▁Character	-4554
▁fetching	-4555
depth	-4556
▁lazy	-4557
▁sleek	-4558
▁tags	-4559
▁gets	-4560
▁maximize	-4561
▁ship	-4562
▁Simplify	-4563
▁band	-4564
▁sustain	-4565
▁Object	-4566
▁pushed	-4567
▁cluster	-4568
▁Le	-4569
▁Gu	-4570
unch	-4571
▁processors	-4572
▁equilibrium	-4573
▁highlighted	-4574
nBut	-4575
▁meet	-4576
▁subject	-4577
tracking	-4578
▁Data	-4579
force	-4580
▁robust	-4581
▁chann	-4582
▁particip	-4583
FT	-4584
idden	-4585
▁{};\	-4586
▁encoding	-4587
ards	-4588
ees	-4589
▁elim	-4590
tes	-4591
dots	-4592
▁classification	-4593
▁rendered	-4594
▁lies	-4595
romagn	-4596
▁matches	-4597
▁essential	-4598
aph	-4599
▁icons	-4600
▁occup	-4601
▁$[	-4602
ymbol	-4603
▁family	-4604
▁languages	-4605
▁children	-4606
▁abstractmethod	-4607
▁thereby	-4608
go	-4609
construct	-4610
▁chosen	-4611
▁asc	-4612
▁ensures	-4613
▁looking	-4614
▁retro	-4615
▁exc	-4616
▁alert	-4617
▁study	-4618
▁econom	-4619
ounters	-4620
▁things	-4621
▁Rem	-4622
▁close	-4623
sively	-4624
▁located	-4625
▁compared	-4626
▁records	-4627
▁ris	-4628
▁attemp	-4629
▁strength	-4630
▁subsequence	-4631
nNow	-4632
▁cat	-4633
▁earth	-4634
▁demand	-4635
used	-4636
▁manager	-4637
▁preserv	-4638
▁Car	-4639
dt	-4640
▁backtracking	-4641
themed	-4642
clusion	-4643
▁cities	-4644
ores	-4645
▁recogn	-4646
▁transition	-4647
▁minimalist	-4648
▁invari	-4649
▁percentage	-4650
inspired	-4651
AR	-4652
▁sides	-4653
versal	-4654
rang	-4655
▁decomposition	-4656
▁formats	-4657
▁little	-4658
▁song	-4659
▁Composite	-4660
tau	-4661
omplete	-4662
cir	-4663
ilarly	-4664
otl	-4665
▁ske	-4666
▁minimizing	-4667
▁advanced	-4668
▁actual	-4669
▁entries	-4670
▁Aim	-4671
rag	-4672
hy	-4673
▁straight	-4674
}}{	-4675
swap	-4676
▁tempor	-4677
▁ep	-4678
▁ign	-4679
▁vec	-4680
▁camera	-4681
▁layered	-4682
▁mor	-4683
▁obstac	-4684
▁typographic	-4685
duplic	-4686
▁Make	-4687
mess	-4688
mplex	-4689
▁initialization	-4690
.)	-4691
▁emer	-4692
▁proof	-4693
▁Sub	-4694
▁anch	-4695
▁science	-4696
▁orders	-4697
▁accessibility	-4698
▁analyze	-4699
▁Furthermore	-4700
SL	-4701
II	-4702
▁mere	-4703
▁internal	-4704
rames	-4705
▁Sch	-4706
▁Since	-4707
▁metric	-4708
▁curl	-4709
▁Not	-4710
▁fill	-4711
▁metal	-4712
▁inviting	-4713
%,	-4714
▁members	-4715
▁Ã	-4716
eces	-4717
▁playful	-4718
▁palindrome	-4719
iers	-4720
▁debug	-4721
image	-4722
][	-4723
▁fit	-4724
▁angular	-4725
▁business	-4726
att	-4727
▁exam	-4728
iform	-4729
▁estim	-4730
Rust	-4731
▁Returns	-4732
▁showc	-4733
NN	-4734
':\	-4735
ids	-4736
IT	-4737
▁flip	-4738
▁dele	-4739
Ph	-4740
▁exceeds	-4741
▁[\	-4742
styled	-4743
▁runs	-4744
bose	-4745
▁pen	-4746
OS	-4747
txt	-4748
output	-4749
orch	-4750
orn	-4751
▁Rot	-4752
▁});\	-4753
▁disco	-4754
▁Bob	-4755
▁Time	-4756
LD	-4757
TypeScript	-4758
(|	-4759
CS	-4760
hest	-4761
▁Finally	-4762
▁arbit	-4763
▁Web	-4764
)}	-4765
▁categories	-4766
▁univers	-4767
▁carbon	-4768
▁Yo	-4769
▁displaying	-4770
▁ali	-4771
▁equals	-4772
king	-4773
abling	-4774
▁aspect	-4775
uting	-4776
▁"";\	-4777
▁dro	-4778
reg	-4779
edia	-4780
▁combinations	-4781
ney	-4782
▁memoization	-4783
▁Error	-4784
▁cook	-4785
▁combine	-4786
▁Sc	-4787
▁duration	-4788
▁Fibonacci	-4789
▁compare	-4790
ended	-4791
,"	-4792
▁explaining	-4793
use	-4794
unks	-4795
▁heart	-4796
▁rock	-4797
▁sphere	-4798
▁plant	-4799
▁permutation	-4800
reveal	-4801
▁gain	-4802
▁differences	-4803
▁YoY	-4804
▁manages	-4805
▁calculating	-4806
path	-4807
▁pix	-4808
▁Draw	-4809
▁More	-4810
▁decision	-4811
(\	-4812
▁weights	-4813
▁wide	-4814
▁Question	-4815
▁coding	-4816
▁major	-4817
▁God	-4818
▁involves	-4819
akes	-4820
▁instances	-4821
▁enter	-4822
▁station	-4823
Box	-4824
▁mix	-4825
▁tou	-4826
remove	-4827
▁pieces	-4828
▁ones	-4829
▁{'	-4830
run	-4831
▁front	-4832
▁occurs	-4833
▁converting	-4834
[:	-4835
uler	-4836
▁rig	-4837
▁invest	-4838
▁upon	-4839
ised	-4840
▁clos	-4841
('');\	-4842
▁Be	-4843
▁numerical	-4844
▁infra	-4845
yml	-4846
▁simply	-4847
▁lens	-4848
▁getting	-4849
Processing	-4850
amiltonian	-4851
problem	-4852
▁subs	-4853
▁feet	-4854
omp	-4855
▁continuous	-4856
▁sensor	-4857
▁discount	-4858
itable	-4859
▁['	-4860
▁cls	-4861
▁vertical	-4862
imits	-4863
▁outside	-4864
▁Pol	-4865
▁homepage	-4866
▁removing	-4867
▁demonstrating	-4868
icit	-4869
▁describe	-4870
uples	-4871
▁fre	-4872
▁horizontal	-4873
▁fallback	-4874
wes	-4875
▁dp	-4876
▁overall	-4877
AN	-4878
▁polic	-4879
Th	-4880
cel	-4881
▁arbitr	-4882
▁net	-4883
▁clar	-4884
▁beaut	-4885
▁scaling	-4886
▁decided	-4887
▁indicators	-4888
cont	-4889
FS	-4890
▁Dockerfile	-4891
▁domin	-4892
▁eff	-4893
compose	-4894
▁finding	-4895
ancial	-4896
AD	-4897
dx	-4898
processors	-4899
icks	-4900
▁formed	-4901
redu	-4902
rical	-4903
ech	-4904
▁lot	-4905
▁past	-4906
▁successful	-4907
rupt	-4908
▁inequ	-4909
▁paddle	-4910
▁pricing	-4911
▁System	-4912
▁loads	-4913
▁stage	-4914
▁passing	-4915
align	-4916
▁six	-4917
▁logical	-4918
cer	-4919
▁docker	-4920
▁compressed	-4921
▁costs	-4922
▁research	-4923
▁whole	-4924
▁individuals	-4925
▁dropdown	-4926
▁considering	-4927
▁\]	-4928
▁quality	-4929
▁Per	-4930
nThis	-4931
>());\	-4932
Note	-4933
▁dance	-4934
mes	-4935
server	-4936
▁collabor	-4937
▁converts	-4938
umpy	-4939
▁picture	-4940
▁displayed	-4941
DB	-4942
imensional	-4943
▁YES	-4944
▁movie	-4945
▁tier	-4946
▁uppercase	-4947
:**	-4948
▁evaluation	-4949
sm	-4950
sÂ	-4951
▁CLI	-4952
▁lengths	-4953
▁formation	-4954
▁yes	-4955
▁capac	-4956
▁floor	-4957
UT	-4958
▁Does	-4959
irth	-4960
}+	-4961
▁batch	-4962
▁govern	-4963
▁atoms	-4964
▁anyone	-4965
▁Auth	-4966
▁interplay	-4967
about	-4968
toLowerCase	-4969
▁walk	-4970
▁plate	-4971
Data	-4972
aur	-4973
▁Two	-4974
ategory	-4975
▁showcasing	-4976
Character	-4977
▁container	-4978
toUpperCase	-4979
imon	-4980
▁codes	-4981
▁unders	-4982
▁shortest	-4983
▁evolution	-4984
▁subset	-4985
--------	-4986
▁cool	-4987
▁visualization	-4988
hesis	-4989
▁currently	-4990
aily	-4991
iff	-4992
▁dict	-4993
▁quantity	-4994
▁supporting	-4995
▁ing	-4996
▁conve	-4997
$\\	-4998
▁reverser	-4999
▁Alice	-5000
▁folder	-5001
▁boolean	-5002
▁ir	-5003
▁category	-5004
▁solid	-5005
▁employees	-5006
which	-5007
ression	-5008
leton	-5009
gener	-5010
validate	-5011
ows	-5012
▁others	-5013
▁engineering	-5014
▁anchor	-5015
▁feedback	-5016
▁exerc	-5017
▁measured	-5018
chain	-5019
▁customer	-5020
▁financial	-5021
▁ray	-5022
▁providing	-5023
▁country	-5024
▁uniform	-5025
▁weather	-5026
ails	-5027
}=\\	-5028
▁Inc	-5029
icated	-5030
▁install	-5031
▁squares	-5032
uum	-5033
semb	-5034
▁failure	-5035
)(	-5036
pmatrix	-5037
▁randomly	-5038
▁num	-5039
▁session	-5040
)`	-5041
▁XML	-5042
▁puzzle	-5043
rec	-5044
▁electromagn	-5045
mines	-5046
\),	-5047
▁million	-5048
column	-5049
▁story	-5050
▁applying	-5051
▁comes	-5052
▁minute	-5053
▁hot	-5054
reci	-5055
▁Convert	-5056
▁op	-5057
▁ideal	-5058
▁visible	-5059
▁[[-	-5060
&#	-5061
▁note	-5062
scill	-5063
▁native	-5064
▁hidden	-5065
▁autoc	-5066
▁John	-5067
cached	-5068
▁blo	-5069
▁devices	-5070
▁saving	-5071
▁purch	-5072
▁vectors	-5073
▁transport	-5074
▁exhib	-5075
uel	-5076
▁copy	-5077
transformers	-5078
▁Task	-5079
▁boundary	-5080
bra	-5081
▁Pract	-5082
▁overl	-5083
▁divided	-5084
▁primary	-5085
urger	-5086
ulate	-5087
ception	-5088
agine	-5089
)$,	-5090
▁eas	-5091
ultane	-5092
slice	-5093
ev	-5094
▁resistor	-5095
▁Node	-5096
▁asked	-5097
idate	-5098
▁carry	-5099
amount	-5100
▁turns	-5101
▁bill	-5102
▁secret	-5103
▁testimon	-5104
num	-5105
▁descript	-5106
dict	-5107
▁plays	-5108
▁instant	-5109
transformation	-5110
sect	-5111
▁miles	-5112
▁jour	-5113
▁highest	-5114
thread	-5115
▁htt	-5116
▁asteroid	-5117
izard	-5118
▁Mon	-5119
RP	-5120
▁inert	-5121
▁adjacent	-5122
▁oscill	-5123
▁skeleton	-5124
Ind	-5125
▁shell	-5126
▁register	-5127
▁enabling	-5128
▁Both	-5129
▁!==	-5130
▁opposite	-5131
operations	-5132
▁hold	-5133
▁locks	-5134
▁modulo	-5135
enn	-5136
▁Remove	-5137
▁counting	-5138
▁begins	-5139
▁volt	-5140
▁inherits	-5141
']	-5142
▁decl	-5143
toggle	-5144
▁spread	-5145
▁veh	-5146
▁sources	-5147
▁stdin	-5148
▁markup	-5149
urope	-5150
▁circum	-5151
▁correctness	-5152
onts	-5153
itation	-5154
wesome	-5155
▁inherit	-5156
▁Met	-5157
▁inequality	-5158
acher	-5159
▁interpret	-5160
▁repeated	-5161
▁ascending	-5162
otal	-5163
▁landmark	-5164
▁dimension	-5165
▁expect	-5166
ooks	-5167
▁corner	-5168
▁projects	-5169
sole	-5170
ousel	-5171
▁geometric	-5172
▁initially	-5173
▁reducing	-5174
▁finds	-5175
▁proportional	-5176
▁animation	-5177
▁backgrounds	-5178
auge	-5179
▁dog	-5180
▁playing	-5181
▁impossible	-5182
▁SEO	-5183
▁kilomet	-5184
▁flags	-5185
▁FPS	-5186
▁bra	-5187
▁appreci	-5188
dimensional	-5189
▁solving	-5190
ele	-5191
▁rectangle	-5192
▁daily	-5193
coll	-5194
$$$)	-5195
▁Vowel	-5196
▁computational	-5197
▁shows	-5198
▁tried	-5199
Rot	-5200
Str	-5201
oman	-5202
▁tuples	-5203
nO	-5204
▁aim	-5205
▁routes	-5206
▁Hamiltonian	-5207
prime	-5208
▁clock	-5209
uplicate	-5210
ike	-5211
▁slider	-5212
▁subproblem	-5213
erm	-5214
ikip	-5215
▁tokens	-5216
▁private	-5217
▁recommend	-5218
▁tap	-5219
Psi	-5220
▁compound	-5221
▁ampl	-5222
▁curve	-5223
[]	-5224
▁aggregate	-5225
avor	-5226
Vowels	-5227
▁supports	-5228
▁fade	-5229
▁swap	-5230
▁spring	-5231
ikipedia	-5232
CM	-5233
▁birth	-5234
▁shop	-5235
▁Format	-5236
▁came	-5237
▁incrementing	-5238
▁subarray	-5239
NA	-5240
▁entry	-5241
▁keyword	-5242
▁updating	-5243
▁Similarly	-5244
org	-5245
aled	-5246
space	-5247
▁formal	-5248
▁route	-5249
▁boxes	-5250
\).	-5251
▁autocomplete	-5252
Enc	-5253
▁hamb	-5254
▁expans	-5255
▁upl	-5256
▁Respon	-5257
lazy	-5258
▁utilities	-5259
rier	-5260
urally	-5261
▁today	-5262
OH	-5263
comb	-5264
▁obtained	-5265
▁Walk	-5266
ached	-5267
▁measurement	-5268
▁dynamically	-5269
▁isn	-5270
▁reflection	-5271
rone	-5272
▁numbered	-5273
▁segments	-5274
)$.	-5275
negative	-5276
▁recurrence	-5277
bound	-5278
visible	-5279
och	-5280
▁weak	-5281
▁wizard	-5282
▁beginning	-5283
▁walls	-5284
▁anc	-5285
aphore	-5286
progress	-5287
gt	-5288
ection	-5289
▁vacuum	-5290
▁maps	-5291
▁interesting	-5292
tra	-5293
▁filen	-5294
▁threshold	-5295
▁frames	-5296
stitution	-5297
▁received	-5298
▁reset	-5299
▁Guide	-5300
▁Processing	-5301
using	-5302
▁derived	-5303
▁signup	-5304
▁ice	-5305
▁download	-5306
▁mouse	-5307
To	-5308
▁simultane	-5309
▁prove	-5310
▁fetches	-5311
▁Hel	-5312
ifiers	-5313
▁Ben	-5314
▁propag	-5315
▁regard	-5316
▁signal	-5317
▁iterate	-5318
▁vict	-5319
▁polar	-5320
▁photons	-5321
▁numpy	-5322
arily	-5323
▁enum	-5324
▁stock	-5325
▁mathematics	-5326
crumb	-5327
▁IN	-5328
mber	-5329
▁perspect	-5330
▁fire	-5331
▁sortable	-5332
▁Ma	-5333
vered	-5334
▁Font	-5335
ians	-5336
ctype	-5337
▁hamburger	-5338
▁progression	-5339
br	-5340
▁baseline	-5341
▁dam	-5342
▁fast	-5343
lack	-5344
tuple	-5345
▁alphabet	-5346
▁las	-5347
▁ment	-5348
▁Intersection	-5349
▁simplify	-5350
▁breadcrumb	-5351
▁marks	-5352
Observer	-5353
▁foot	-5354
▁consistent	-5355
▁\(\	-5356
iou	-5357
variables	-5358
specific	-5359
▁synthetic	-5360
▁learn	-5361
▁theming	-5362
▁Value	-5363
▁^	-5364
Inc	-5365
▁picker	-5366
▁indication	-5367
▁mechanisms	-5368
▁Which	-5369
▁World	-5370
DF	-5371
▁pul	-5372
▁capabilities	-5373
abc	-5374
icul	-5375
void	-5376
Py	-5377
▁Awesome	-5378
▁documents	-5379
▁leaves	-5380
rum	-5381
▁operating	-5382
▁stepper	-5383
▁scra	-5384
▁typography	-5385
▁testimonials	-5386
ialog	-5387
▁performing	-5388
fil	-5389
▁Act	-5390
▁bond	-5391
OU	-5392
▁FAQ	-5393
)--	-5394
ipes	-5395
ov	-5396
Hel	-5397
▁tabbed	-5398
ometry	-5399
▁lic	-5400
scroll	-5401
carousel	-5402
popular	-5403
▁soil	-5404
▁vot	-5405
click	-5406
▁truth	-5407
▁expandable	-5408
▁thing	-5409
collapse	-5410
cctype	-5411
▁blog	-5412
▁pipe	-5413
outh	-5414
▁minimize	-5415
ially	-5416
▁fourth	-5417
▁neg	-5418
▁id	-5419
▁filterable	-5420
▁Fonts	-5421
▁longer	-5422
▁sidebar	-5423
inder	-5424
▁Even	-5425
▁smart	-5426
ender	-5427
divide	-5428
▁accordion	-5429
▁lex	-5430
na	-5431
▁Digit	-5432
▁continue	-5433
resizable	-5434
counters	-5435
▁Practices	-5436
ony	-5437
▁places	-5438
▁bag	-5439
▁arbitrary	-5440
triggered	-5441
thing	-5442
▁cube	-5443
▁Authoring	-5444
▁resolution	-5445
▁adds	-5446
▁topic	-5447
▁typing	-5448
▁satisfy	-5449
▁En	-5450
▁Par	-5451
▁semaphore	-5452
▁computation	-5453
▁Complex	-5454
▁toward	-5455
final	-5456
▁concaten	-5457
dr	-5458
▁robot	-5459
encoded	-5460
▁func	-5461
lor	-5462
▁CTA	-5463
herent	-5464
▁temperatures	-5465
missions	-5466
▁rectangular	-5467
ina	-5468
Conquer	-5469
eper	-5470
bind	-5471
▁Simply	-5472
▁fib	-5473
▁lightbox	-5474
▁gauge	-5475
▁react	-5476
▁prem	-5477
▁assumpt	-5478
▁restart	-5479
Ent	-5480
ussian	-5481
Reverser	-5482
▁quarter	-5483
}(\\	-5484
▁trig	-5485
▁depending	-5486
ugh	-5487
AMP	-5488
▁vs	-5489
user	-5490
asc	-5491
▁batter	-5492
▁leaderboard	-5493
▁molecular	-5494
readed	-5495
▁newsletter	-5496
ridge	-5497
▁pH	-5498
▁assess	-5499
big	-5500
▁tax	-5501
direct	-5502
▁posts	-5503
canvas	-5504
ingu	-5505
▁###	-5506
nD	-5507
▁alt	-5508
▁voltage	-5509
▁atmosphere	-5510
▁regis	-5511
▁pun	-5512
▁namespace	-5513
▁decisions	-5514
▁condu	-5515
▁>>>	-5516
▁circuit	-5517
▁entropy	-5518
aged	-5519
()`	-5520
▁approaches	-5521
CaseStrategy	-5522
ls	-5523
apping	-5524
▁shiftedChar	-5525
▁monthly	-5526
▁Europe	-5527
bolds	-5528
boldsymbol	-5529
▁Pr	-5530
aeiou	-5531
▁NO	-5532
▁tabulation	-5533
enced	-5534
▁vast	-5535
▁requiring	-5536
▁fetch	-5537
▁Reconstruct	-5538
▁evidence	-5539
▁falls	-5540
▁ReverseString	-5541
▁doll	-5542
▁believes	-5543
▁palindrom	-5544
▁esc	-5545
▁depart	-5546
▁switch	-5547
ortun	-5548
ption	-5549
▁chunk	-5550
oming	-5551
▁Tensor	-5552
▁expansion	-5553
ello	-5554
aks	-5555
▁notes	-5556
HP	-5557
▁workers	-5558
ris	-5559
▁intervals	-5560
▁Alternate	-5561
rial	-5562
▁avoiding	-5563
▁laws	-5564
ailed	-5565
▁login	-5566
▁failures	-5567
▁float	-5568
▁multiply	-5569
Helper	-5570
▁rough	-5571
▁console	-5572
ios	-5573
▁superposition	-5574
▁GC	-5575
▁enhance	-5576
alphabetic	-5577
▁mit	-5578
▁mutable	-5579
▁descending	-5580
▁however	-5581
▁illustr	-5582
▁scientific	-5583
,-	-5584
▁reli	-5585
▁release	-5586
▁dynamics	-5587
ests	-5588
ishes	-5589
▁fraction	-5590
/.	-5591
▁Are	-5592
imeter	-5593
▁purpose	-5594
CE	-5595
AE	-5596
▁With	-5597
mitted	-5598
▁nums	-5599
▁towards	-5600
▁diagonal	-5601
▁Operation	-5602
▁extracted	-5603
til	-5604
▁fault	-5605
▁US	-5606
ellow	-5607
apsed	-5608
▁headers	-5609
▁controlled	-5610
entials	-5611
![	-5612
▁phenomenon	-5613
▁teams	-5614
▁generator	-5615
▁combination	-5616
▁circular	-5617
▁observed	-5618
▁Im	-5619
dec	-5620
▁intersection	-5621
▁interested	-5622
▁Suppose	-5623
▁derivative	-5624
▁evaluate	-5625
▁issue	-5626
Increment	-5627
▁spac	-5628
▁pan	-5629
▁Args	-5630
reduce	-5631
▁hyper	-5632
▁quite	-5633
ameter	-5634
▁faster	-5635
▁recon	-5636
▁degree	-5637
▁ends	-5638
▁bon	-5639
▁community	-5640
▁Type	-5641
▁concentration	-5642
▁facilit	-5643
▁commit	-5644
▁priority	-5645
lets	-5646
orough	-5647
yond	-5648
structure	-5649
▁ShiftProcessor	-5650
▁comment	-5651
viously	-5652
anglement	-5653
▁},\	-5654
▁brow	-5655
▁defining	-5656
▁Toggle	-5657
WS	-5658
▁reports	-5659
dfrac	-5660
▁beam	-5661
▁propos	-5662
▁enumerate	-5663
▁sufficient	-5664
AMPLE	-5665
▁la	-5666
▁gap	-5667
▁plants	-5668
▁escape	-5669
▁slight	-5670
▁separation	-5671
roller	-5672
▁expressed	-5673
mega	-5674
print	-5675
▁memoize	-5676
uning	-5677
rem	-5678
cosystem	-5679
atom	-5680
reserve	-5681
atives	-5682
)?	-5683
▁tor	-5684
fold	-5685
oles	-5686
▁specifically	-5687
▁increased	-5688
udget	-5689
▁Quant	-5690
▁beyond	-5691
▁Memoizer	-5692
▁encryption	-5693
▁nut	-5694
heric	-5695
▁rain	-5696
▁basis	-5697
operation	-5698
Flow	-5699
▁explicit	-5700
▁serves	-5701
▁drag	-5702
▁likely	-5703
▁Divide	-5704
▁(\\	-5705
',\	-5706
▁closed	-5707
▁NaOH	-5708
gebra	-5709
▁po	-5710
▁intern	-5711
▁balls	-5712
▁Ab	-5713
lists	-5714
▁changing	-5715
▁ecosystem	-5716
▁dialog	-5717
sy	-5718
DD	-5719
Build	-5720
ilation	-5721
▁reve	-5722
▁measures	-5723
▁exponential	-5724
number	-5725
verbose	-5726
▁Dec	-5727
▁contrast	-5728
AndConquer	-5729
without	-5730
▁profit	-5731
Mod	-5732
▁Yes	-5733
▁designed	-5734
▁monitors	-5735
▁signature	-5736
▁completion	-5737
▁cyl	-5738
▁ranges	-5739
▁advance	-5740
une	-5741
▁involved	-5742
▁raw	-5743
▁wor	-5744
Memo	-5745
▁effectively	-5746
▁divisibility	-5747
▁tele	-5748
ope	-5749
Digit	-5750
▁harmon	-5751
▁games	-5752
▁instructions	-5753
gram	-5754
▁entanglement	-5755
▁elimination	-5756
▁protect	-5757
oon	-5758
▁practice	-5759
▁mention	-5760
inclu	-5761
iliary	-5762
Pipeline	-5763
▁phone	-5764
▁testament	-5765
uses	-5766
▁active	-5767
▁attempts	-5768
▁educ	-5769
▁happens	-5770
▁Kn	-5771
>>,\	-5772
eters	-5773
store	-5774
func	-5775
apped	-5776
▁took	-5777
▁activity	-5778
▁spectrum	-5779
https	-5780
▁Phys	-5781
▁style	-5782
▁Stream	-5783
▁Complexity	-5784
▁organization	-5785
▁passes	-5786
▁started	-5787
atial	-5788
▁Prove	-5789
▁mind	-5790
ctuation	-5791
▁updated	-5792
▁cru	-5793
▁tang	-5794
▁arrange	-5795
▁exercise	-5796
▁elastic	-5797
▁factorization	-5798
agrang	-5799
ref	-5800
▁SAMPLE	-5801
ipping	-5802
ibly	-5803
▁receive	-5804
▁Duplicate	-5805
circ	-5806
▁ten	-5807
▁appropriately	-5808
▁skills	-5809
nFor	-5810
messaging	-5811
▁liters	-5812
▁median	-5813
▁devi	-5814
▁promp	-5815
rences	-5816
▁treat	-5817
▁aspects	-5818
▁obstacles	-5819
nE	-5820
▁perspective	-5821
▁reaches	-5822
sv	-5823
apter	-5824
▁From	-5825
cher	-5826
▁Git	-5827
▁talk	-5828
▁benchmark	-5829
▁advant	-5830
▁finite	-5831
▁Fast	-5832
Omega	-5833
▁battery	-5834
▁concrete	-5835
initely	-5836
▁ey	-5837
arp	-5838
▁finally	-5839
pid	-5840
JS	-5841
▁duplicates	-5842
▁origin	-5843
▁conservation	-5844
▁thinking	-5845
▁guide	-5846
▁Lit	-5847
List	-5848
▁electromagnetic	-5849
values	-5850
iet	-5851
▁Ne	-5852
▁environments	-5853
▁presence	-5854
▁fru	-5855
▁intu	-5856
roneous	-5857
reat	-5858
www	-5859
▁visit	-5860
▁observer	-5861
xi	-5862
▁distances	-5863
▁compet	-5864
▁limits	-5865
▁tiles	-5866
)]	-5867
▁hex	-5868
▁determines	-5869
▁definitions	-5870
▁independent	-5871
▁sing	-5872
▁convent	-5873
▁stability	-5874
staticmethod	-5875
▁suitable	-5876
▁ValueError	-5877
mutex	-5878
▁elapsed	-5879
ai	-5880
nHowever	-5881
▁nothing	-5882
▁integrate	-5883
▁Initial	-5884
▁suff	-5885
▁retrieving	-5886
umeric	-5887
▁manipulation	-5888
▁consistency	-5889
▁PyT	-5890
▁credentials	-5891
Qu	-5892
▁Acc	-5893
under	-5894
answer	-5895
▁encoder	-5896
▁collisions	-5897
▁serve	-5898
▁loops	-5899
▁magnitude	-5900
▁attacks	-5901
▁edit	-5902
▁chart	-5903
▁restaur	-5904
▁contents	-5905
▁Construct	-5906
commented	-5907
div	-5908
));	-5909
▁Tower	-5910
▁username	-5911
▁chose	-5912
▁denotes	-5913
],[	-5914
▁bur	-5915
▁criter	-5916
▁thorough	-5917
▁lowest	-5918
▁inverse	-5919
▁causing	-5920
<(	-5921
▁Col	-5922
▁solar	-5923
umbers	-5924
▁views	-5925
▁representations	-5926
▁charged	-5927
▁heights	-5928
agrangian	-5929
▁Rs	-5930
▁imm	-5931
</	-5932
opic	-5933
rd	-5934
cd	-5935
threaded	-5936
▁Encoder	-5937
▁monitoring	-5938
▁blood	-5939
docu	-5940
atibility	-5941
config	-5942
▁},	-5943
▁Multiply	-5944
▁technology	-5945
▁trigger	-5946
▁connecting	-5947
elling	-5948
▁throughput	-5949
▁Rep	-5950
▁magic	-5951
iler	-5952
▁CPU	-5953
▁victory	-5954
ycle	-5955
▁scraper	-5956
▁PyTorch	-5957
▁rotate	-5958
▁exposes	-5959
▁networks	-5960
bits	-5961
agraph	-5962
ologies	-5963
▁predictions	-5964
▁climb	-5965
▁gl	-5966
ynchron	-5967
▁atmospheric	-5968
▁polymorphism	-5969
EN	-5970
▁Ge	-5971
ifying	-5972
Dec	-5973
atching	-5974
ording	-5975
▁passed	-5976
▁Component	-5977
▁teacher	-5978
▁\\\\\	-5979
▁Base	-5980
▁$|	-5981
▁iterative	-5982
apor	-5983
lines	-5984
▁situation	-5985
▁modular	-5986
▁Validator	-5987
▁returned	-5988
Name	-5989
uxiliary	-5990
▁specify	-5991
['	-5992
▁acid	-5993
▁occurrences	-5994
▁American	-5995
$$$-	-5996
while	-5997
istry	-5998
▁gir	-5999
▁heavy	-6000
rict	-6001
▁influence	-6002
▁wondering	-6003
UI	-6004
▁rapid	-6005
▁stages	-6006
▁merging	-6007
▁significantly	-6008
▁belong	-6009
▁Any	-6010
▁trip	-6011
▁therefore	-6012
▁wild	-6013
▁stores	-6014
▁Platform	-6015
onom	-6016
sters	-6017
▁highly	-6018
▁TensorFlow	-6019
hood	-6020
▁solves	-6021
▁interle	-6022
substitution	-6023
umin	-6024
▁looks	-6025
▁CharProcessor	-6026
▁winning	-6027
▁["	-6028
▁fuel	-6029
▁scalar	-6030
omb	-6031
▁proton	-6032
var	-6033
▁##	-6034
ales	-6035
▁introduce	-6036
recur	-6037
▁Card	-6038
▁samples	-6039
color	-6040
▁offer	-6041
▁Otherwise	-6042
ramework	-6043
▁inner	-6044
▁death	-6045
▁Lar	-6046
▁detected	-6047
▁limitations	-6048
reak	-6049
CP	-6050
▁deck	-6051
▁Profile	-6052
ooting	-6053
inte	-6054
▁identical	-6055
▁geometry	-6056
▁references	-6057
▁bind	-6058
▁atomic	-6059
▁spaw	-6060
▁transforms	-6061
▁perp	-6062
scale	-6063
)))	-6064
▁incorrect	-6065
▁integrity	-6066
Index	-6067
▁Bay	-6068
▁budget	-6069
▁keeping	-6070
url	-6071
▁boss	-6072
▁togg	-6073
▁piv	-6074
▁doub	-6075
▁revealing	-6076
▁lever	-6077
}|	-6078
▁compatibility	-6079
▁Singleton	-6080
▁Log	-6081
▁fine	-6082
oa	-6083
>,	-6084
▁accurate	-6085
▁hydrogen	-6086
fo	-6087
▁identity	-6088
Entity	-6089
▁strict	-6090
istical	-6091
ried	-6092
such	-6093
Characters	-6094
ken	-6095
zero	-6096
▁rank	-6097
▁everything	-6098
▁allocations	-6099
▁Max	-6100
▁algebra	-6101
▁PO	-6102
atively	-6103
▁manif	-6104
▁`__	-6105
dom	-6106
itivity	-6107
▁prep	-6108
▁spacetime	-6109
fol	-6110
▁risk	-6111
irect	-6112
▁simultaneously	-6113
▁hits	-6114
task	-6115
▁Mer	-6116
▁pull	-6117
▁planning	-6118
▁kilometers	-6119
▁symbols	-6120
▁Compare	-6121
▁asyncio	-6122
▁ECS	-6123
▁broad	-6124
model	-6125
▁sentiment	-6126
mic	-6127
grade	-6128
▁filtered	-6129
▁violating	-6130
▁eth	-6131
Hello	-6132
xygen	-6133
iful	-6134
▁Moreover	-6135
▁meticul	-6136
▁merely	-6137
▁studies	-6138
earch	-6139
web	-6140
▁cultural	-6141
▁cars	-6142
▁bat	-6143
▁tracker	-6144
▁months	-6145
Example	-6146
▁drawing	-6147
kg	-6148
▁prediction	-6149
olith	-6150
▁channel	-6151
▁tickets	-6152
▁mechanical	-6153
▁touch	-6154
▁desired	-6155
▁totals	-6156
▁recursion	-6157
▁love	-6158
▁popular	-6159
hol	-6160
▁uns	-6161
▁didn	-6162
▁articles	-6163
▁exponent	-6164
▁converted	-6165
iation	-6166
▁coin	-6167
▁journey	-6168
▁conclusion	-6169
cdots	-6170
▁init	-6171
▁drawn	-6172
▁numeric	-6173
▁overlay	-6174
tempt	-6175
▁mock	-6176
haps	-6177
▁deployment	-6178
▁rounds	-6179
▁soci	-6180
pol	-6181
xture	-6182
▁timing	-6183
▁United	-6184
▁replaced	-6185
▁enemies	-6186
LL	-6187
hyth	-6188
▁isol	-6189
weight	-6190
atory	-6191
▁delet	-6192
▁surround	-6193
onic	-6194
ernel	-6195
▁upload	-6196
▁clearly	-6197
▁ancient	-6198
▁explores	-6199
▁configure	-6200
▁termin	-6201
▁spatial	-6202
elect	-6203
▁AWS	-6204
▁roots	-6205
▁saved	-6206
▁removed	-6207
▁importance	-6208
▁grams	-6209
▁parad	-6210
connect	-6211
▁assuming	-6212
lus	-6213
into	-6214
▁byte	-6215
▁Option	-6216
▁multiplier	-6217
▁platforms	-6218
▁instruction	-6219
war	-6220
axis	-6221
▁delay	-6222
)--(	-6223
$:	-6224
}}\\	-6225
▁remote	-6226
overline	-6227
▁destro	-6228
nov	-6229
pers	-6230
chann	-6231
▁paragraph	-6232
▁rad	-6233
}^{\\	-6234
ribe	-6235
▁rating	-6236
▁shapes	-6237
ana	-6238
▁conditionals	-6239
istance	-6240
▁capture	-6241
Alpha	-6242
▁cryptography	-6243
▁denom	-6244
","	-6245
▁gard	-6246
▁tour	-6247
esar	-6248
▁extracts	-6249
rane	-6250
▁filters	-6251
▁composite	-6252
▁lost	-6253
olithic	-6254
▁DSL	-6255
▁cub	-6256
▁measurements	-6257
▁environmental	-6258
▁]	-6259
cls	-6260
▁iteration	-6261
▁scalability	-6262
ening	-6263
▁film	-6264
▁ideas	-6265
▁medical	-6266
▁differential	-6267
▁Mr	-6268
▁capable	-6269
▁alpha	-6270
fn	-6271
▁temporary	-6272
▁older	-6273
Category	-6274
cons	-6275
▁-\\	-6276
▁determined	-6277
icular	-6278
answerable	-6279
▁iron	-6280
▁decorator	-6281
▁Pipeline	-6282
▁validator	-6283
but	-6284
▁gor	-6285
vowel	-6286
▁magnet	-6287
▁applies	-6288
▁bird	-6289
exp	-6290
▁audio	-6291
nP	-6292
▁throughout	-6293
▁convolution	-6294
ancy	-6295
▁helpful	-6296
▁prices	-6297
fit	-6298
▁oxygen	-6299
▁believe	-6300
▁Framework	-6301
▁rise	-6302
▁silent	-6303
▁flex	-6304
▁Core	-6305
iterative	-6306
▁confused	-6307
do	-6308
▁infrastructure	-6309
▁Call	-6310
▁connects	-6311
▁quotes	-6312
▁construction	-6313
▁While	-6314
▁pand	-6315
▁ther	-6316
▁surfaces	-6317
▁sequential	-6318
pm	-6319
http	-6320
▁bought	-6321
▁evol	-6322
▁benefits	-6323
▁unc	-6324
▁tension	-6325
illi	-6326
▁Next	-6327
host	-6328
▁plots	-6329
▁men	-6330
▁accepts	-6331
roup	-6332
▁scan	-6333
▁directions	-6334
nand	-6335
DE	-6336
▁existence	-6337
▁Fran	-6338
▁damage	-6339
nIt	-6340
▁sessions	-6341
iki	-6342
▁Array	-6343
▁reviews	-6344
ynamic	-6345
▁Uppercase	-6346
stone	-6347
▁eat	-6348
▁reality	-6349
▁Yet	-6350
▁acts	-6351
▁Rails	-6352
related	-6353
▁monolithic	-6354
cm	-6355
[\\	-6356
though	-6357
▁Method	-6358
ichi	-6359
▁DNA	-6360
GB	-6361
ems	-6362
▁limited	-6363
df	-6364
▁Filter	-6365
▁Mod	-6366
\_	-6367
ighting	-6368
▁storing	-6369
$).	-6370
▁notifications	-6371
dent	-6372
▁CharTransformer	-6373
▁sensitivity	-6374
▁transaction	-6375
▁sales	-6376
orent	-6377
▁profound	-6378
▁cop	-6379
uous	-6380
▁policy	-6381
NET	-6382
▁deleting	-6383
nL	-6384
cho	-6385
▁Run	-6386
inese	-6387
▁nit	-6388
sembly	-6389
idity	-6390
▁continuously	-6391
▁conditional	-6392
sel	-6393
▁lift	-6394
▁scatter	-6395
ein	-6396
▁fresh	-6397
lers	-6398
▁fab	-6399
orentz	-6400
▁FastAPI	-6401
▁incoming	-6402
▁saves	-6403
▁stay	-6404
}$\	-6405
▁lif	-6406
▁resp	-6407
▁refer	-6408
▁replacement	-6409
▁Assume	-6410
arn	-6411
ius	-6412
▁penal	-6413
▁easily	-6414
▁CI	-6415
▁went	-6416
indices	-6417
▁roads	-6418
No	-6419
XX	-6420
▁pound	-6421
▁climate	-6422
▁$$\\	-6423
aly	-6424
▁electrical	-6425
▁yellow	-6426
▁join	-6427
▁triang	-6428
▁driver	-6429
▁asynchron	-6430
jection	-6431
▁Platformer	-6432
▁vul	-6433
▁party	-6434
▁emot	-6435
▁orbital	-6436
▁traject	-6437
▁SRP	-6438
umes	-6439
▁season	-6440
▁hint	-6441
▁reco	-6442
▁landsc	-6443
pass	-6444
▁parses	-6445
();	-6446
imeters	-6447
▁Lagrangian	-6448
▁optimizations	-6449
▁criteria	-6450
Inst	-6451
Class	-6452
▁central	-6453
▁implications	-6454
▁brack	-6455
term	-6456
▁filename	-6457
idget	-6458
Sample	-6459
▁gorout	-6460
▁merged	-6461
▁slightly	-6462
AP	-6463
▁Ga	-6464
▁subsequent	-6465
▁fra	-6466
dit	-6467
▁Under	-6468
▁cutting	-6469
▁append	-6470
▁mist	-6471
▁apart	-6472
ester	-6473
icity	-6474
energy	-6475
▁mitig	-6476
esting	-6477
▁cold	-6478
▁Emp	-6479
deque	-6480
scan	-6481
enses	-6482
▁placement	-6483
El	-6484
▁Spring	-6485
▁partitioning	-6486
room	-6487
▁angles	-6488
▁normalization	-6489
▁rotated	-6490
zy	-6491
aesar	-6492
▁narrow	-6493
▁theories	-6494
▁Support	-6495
▁alignment	-6496
"]	-6497
NO	-6498
▁parser	-6499
▁began	-6500
>();\	-6501
▁preserving	-6502
ley	-6503
▁chat	-6504
▁stable	-6505
dis	-6506
poses	-6507
▁economic	-6508
▁Vis	-6509
▁describes	-6510
conquer	-6511
▁vehicle	-6512
▁Poly	-6513
▁annot	-6514
▁annual	-6515
Value	-6516
▁fold	-6517
▁consequ	-6518
▁sold	-6519
strings	-6520
avel	-6521
IOU	-6522
▁hierarchy	-6523
gn	-6524
enix	-6525
▁saw	-6526
default	-6527
▁attempt	-6528
▁dates	-6529
▁Pho	-6530
▁stoichi	-6531
▁fails	-6532
▁cry	-6533
▁night	-6534
▁Set	-6535
▁pit	-6536
increment	-6537
diction	-6538
▁knapsack	-6539
▁terminal	-6540
▁May	-6541
▁failed	-6542
Rem	-6543
▁salary	-6544
▁relativity	-6545
")\	-6546
ipal	-6547
▁exclu	-6548
FO	-6549
CV	-6550
AEIOU	-6551
▁vulner	-6552
ship	-6553
▁Boot	-6554
▁deal	-6555
▁tall	-6556
▁Recursive	-6557
▁scheduling	-6558
▁traversal	-6559
ecause	-6560
year	-6561
▁stairs	-6562
▁underlying	-6563
▁punctuation	-6564
cles	-6565
▁included	-6566
▁WAS	-6567
selves	-6568
▁stret	-6569
cores	-6570
pes	-6571
▁Man	-6572
▁confirm	-6573
▁destination	-6574
bounded	-6575
ynamics	-6576
▁Benchmark	-6577
▁Bayes	-6578
▁amplitude	-6579
▁histor	-6580
rox	-6581
▁Maze	-6582
▁restaurant	-6583
▁Allow	-6584
cat	-6585
▁stoichiometric	-6586
gex	-6587
each	-6588
▁moist	-6589
▁runtime	-6590
▁procedurally	-6591
▁mi	-6592
even	-6593
▁agent	-6594
odies	-6595
cases	-6596
▁embedded	-6597
▁Help	-6598
▁animals	-6599
▁simulate	-6600
▁countdown	-6601
CII	-6602
▁achieved	-6603
▁memoizer	-6604
++)	-6605
▁cart	-6606
▁Phoenix	-6607
▁Thanks	-6608
▁Three	-6609
▁mask	-6610
▁Ax	-6611
iversity	-6612
▁races	-6613
Test	-6614
▁analog	-6615
▁Num	-6616
▁liv	-6617
▁classify	-6618
▁collectible	-6619
▁workflow	-6620
▁Stand	-6621
▁electro	-6622
▁UpperCase	-6623
▁specifying	-6624
prise	-6625
▁decor	-6626
rench	-6627
versely	-6628
oul	-6629
oop	-6630
SE	-6631
pipeline	-6632
▁employee	-6633
▁thrust	-6634
▁unf	-6635
Phi	-6636
▁manner	-6637
User	-6638
▁flows	-6639
▁listing	-6640
ME	-6641
▁inherent	-6642
▁purposes	-6643
neq	-6644
gl	-6645
▁Mark	-6646
▁WASD	-6647
▁(`	-6648
▁kernel	-6649
▁whereas	-6650
ln	-6651
▁latt	-6652
▁usually	-6653
▁comparing	-6654
▁satisfies	-6655
()),\	-6656
how	-6657
▁roughly	-6658
▁uncertain	-6659
ene	-6660
▁unbounded	-6661
ampling	-6662
▁Chinese	-6663
>&	-6664
iented	-6665
▁offic	-6666
▁shield	-6667
▁Action	-6668
▁license	-6669
▁ASP	-6670
▁bank	-6671
▁embedding	-6672
▁laser	-6673
▁Law	-6674
▁Inst	-6675
▁User	-6676
▁shuff	-6677
▁automated	-6678
html	-6679
▁favor	-6680
▁fair	-6681
▁wait	-6682
▁rout	-6683
▁derive	-6684
▁speeds	-6685
▁Iter	-6686
eros	-6687
otlib	-6688
▁altitude	-6689
▁member	-6690
▁executed	-6691
plotlib	-6692
Un	-6693
▁zone	-6694
▁flatten	-6695
▁incorporate	-6696
ocal	-6697
▁blank	-6698
riend	-6699
▁acting	-6700
▁++	-6701
▁satell	-6702
▁conserv	-6703
▁considerations	-6704
▁Hon	-6705
▁gave	-6706
▁accordingly	-6707
▁released	-6708
▁circumference	-6709
pat	-6710
xx	-6711
▁mes	-6712
irection	-6713
▁technical	-6714
▁gradu	-6715
▁HUD	-6716
▁activities	-6717
▁POST	-6718
▁winner	-6719
▁absorb	-6720
accumul	-6721
arest	-6722
izz	-6723
▁entity	-6724
▁pin	-6725
▁GCD	-6726
▁diver	-6727
^-	-6728
pite	-6729
▁computes	-6730
▁stars	-6731
▁Lorentz	-6732
▁NumPy	-6733
▁fires	-6734
modules	-6735
endicular	-6736
▁corre	-6737
▁legal	-6738
▁living	-6739
roid	-6740
▁exhibit	-6741
▁prompts	-6742
▁countries	-6743
▁Gin	-6744
ady	-6745
▁shel	-6746
▁]\	-6747
▁];\	-6748
▁retrieval	-6749
flag	-6750
▁oce	-6751
la	-6752
▁foreign	-6753
rist	-6754
▁craft	-6755
▁streaming	-6756
bles	-6757
eral	-6758
▁accumulated	-6759
▁Koa	-6760
▁drive	-6761
character	-6762
▁insights	-6763
▁SQLite	-6764
iced	-6765
▁bounded	-6766
▁inclusive	-6767
▁Fig	-6768
▁Step	-6769
▁subtract	-6770
▁Define	-6771
initial	-6772
)$$\	-6773
▁triple	-6774
▁cumul	-6775
▁inches	-6776
▁blockchain	-6777
roph	-6778
▁goroutine	-6779
▁seam	-6780
gence	-6781
heses	-6782
▁destroy	-6783
ners	-6784
ogg	-6785
json	-6786
▁governed	-6787
check	-6788
▁snake	-6789
▁mm	-6790
▁neutral	-6791
▁programs	-6792
]`	-6793
▁balanced	-6794
▁effort	-6795
▁remainder	-6796
▁experiments	-6797
▁Tr	-6798
▁grade	-6799
ellig	-6800
▁decay	-6801
eks	-6802
▁[])\	-6803
▁yields	-6804
▁told	-6805
channels	-6806
True	-6807
▁hands	-6808
▁Laravel	-6809
▁erroneous	-6810
▁almost	-6811
Lambda	-6812
ipped	-6813
▁Nest	-6814
▁beauty	-6815
▁Mat	-6816
▁genetic	-6817
psilon	-6818
▁GET	-6819
Context	-6820
mm	-6821
▁polyg	-6822
▁Gra	-6823
zone	-6824
▁Quantum	-6825
▁memoized	-6826
▁undef	-6827
queue	-6828
ulated	-6829
▁statistical	-6830
!"	-6831
▁span	-6832
▁Fiber	-6833
▁Standard	-6834
▁sentences	-6835
dat	-6836
▁Break	-6837
tri	-6838
▁dx	-6839
▁ill	-6840
optional	-6841
▁[]	-6842
▁States	-6843
▁pytest	-6844
xÂ	-6845
▁lattice	-6846
▁Inte	-6847
▁door	-6848
▁became	-6849
mediately	-6850
▁perpendicular	-6851
sem	-6852
▁performed	-6853
PC	-6854
names	-6855
scopic	-6856
coming	-6857
▁worked	-6858
▁income	-6859
▁bits	-6860
▁bou	-6861
▁Quark	-6862
▁eventually	-6863
▁bad	-6864
Instance	-6865
▁entirely	-6866
▁Knapsack	-6867
core	-6868
▁Word	-6869
▁weap	-6870
▁GUI	-6871
▁undefined	-6872
▁dependency	-6873
ny	-6874
ixir	-6875
ION	-6876
version	-6877
▁attention	-6878
enuse	-6879
estar	-6880
PHP	-6881
▁Am	-6882
rev	-6883
factory	-6884
▁frequencies	-6885
(*	-6886
▁pow	-6887
▁tit	-6888
▁tradeoffs	-6889
▁(-	-6890
▁cylinder	-6891
▁Min	-6892
▁recent	-6893
standing	-6894
aste	-6895
▁reaching	-6896
▁deviation	-6897
▁introduced	-6898
tended	-6899
▁Therefore	-6900
▁mine	-6901
▁prom	-6902
▁translation	-6903
stry	-6904
▁HCl	-6905
lab	-6906
▁ai	-6907
▁NestJS	-6908
▁hypotenuse	-6909
uf	-6910
▁ow	-6911
▁depends	-6912
▁surv	-6913
▁produces	-6914
entral	-6915
▁heard	-6916
▁activation	-6917
▁preprocessing	-6918
▁glu	-6919
perty	-6920
▁Actix	-6921
Ruby	-6922
▁Quarkus	-6923
▁Litestar	-6924
▁systematic	-6925
▁spent	-6926
▁scheduler	-6927
▁structural	-6928
▁Perform	-6929
▁gold	-6930
▁causes	-6931
▁mirrors	-6932
▁themselves	-6933
RE	-6934
child	-6935
Or	-6936
▁AN	-6937
ifically	-6938
itud	-6939
▁decrease	-6940
▁ingred	-6941
▁eg	-6942
rate	-6943
▁Rec	-6944
▁changed	-6945
▁Newton	-6946
▁Trans	-6947
card	-6948
▁rigor	-6949
▁heap	-6950
Elixir	-6951
▁leave	-6952
▁recently	-6953
▁immediately	-6954
ongo	-6955
▁preview	-6956
▁mentioned	-6957
▁mac	-6958
▁initi	-6959
▁indust	-6960
Letter	-6961
)=\\	-6962
▁coming	-6963
ands	-6964
▁accounts	-6965
emplate	-6966
nWhy	-6967
ruct	-6968
▁flux	-6969
▁livel	-6970
▁bonus	-6971
▁thick	-6972
App	-6973
▁Mar	-6974
▁bask	-6975
▁hous	-6976
▁grand	-6977
▁noise	-6978
sibility	-6979
▁factorial	-6980
▁packages	-6981
Range	-6982
▁garden	-6983
)}{	-6984
abol	-6985
Model	-6986
▁cuts	-6987
format	-6988
▁Pre	-6989
▁validates	-6990
seud	-6991
▁seed	-6992
▁exert	-6993
▁ago	-6994
▁carrying	-6995
▁gray	-6996
▁moisture	-6997
writ	-6998
top	-6999
▁sho	-7000
▁collected	-7001
▁rol	-7002
iny	-7003
▁gal	-7004
▁$$$[	-7005
▁callback	-7006
▁prefer	-7007
Comp	-7008
ollow	-7009
▁Hono	-7010
▁wins	-7011
?"	-7012
nAnd	-7013
marks	-7014
▁extend	-7015
▁coefficients	-7016
').	-7017
▁TypeError	-7018
'),	-7019
Se	-7020
▁Axum	-7021
▁Wind	-7022
▁delicate	-7023
▁powerful	-7024
IS	-7025
well	-7026
hythm	-7027
▁(*	-7028
YY	-7029
▁rein	-7030
▁agree	-7031
▁dollars	-7032
▁candies	-7033
Stage	-7034
▁played	-7035
ifact	-7036
▁branch	-7037
▁removes	-7038
▁constraint	-7039
▁describing	-7040
▁Responsibility	-7041
osion	-7042
enumer	-7043
AML	-7044
Im	-7045
▁encaps	-7046
▁recursively	-7047
chi	-7048
▁LCM	-7049
▁livelock	-7050
erman	-7051
atomics	-7052
▁assigned	-7053
▁Auxiliary	-7054
▁dash	-7055
▁analyz	-7056
▁nutri	-7057
last	-7058
▁lst	-7059
▁bonds	-7060
ricks	-7061
▁cast	-7062
▁payments	-7063
▁studying	-7064
normal	-7065
▁hence	-7066
▁cosm	-7067
▁unlock	-7068
▁windows	-7069
▁fost	-7070
▁dem	-7071
umed	-7072
ricult	-7073
Net	-7074
▁guarantee	-7075
edom	-7076
▁rotating	-7077
OM	-7078
lim	-7079
▁establish	-7080
▁gases	-7081
▁thermod	-7082
acteria	-7083
carp	-7084
▁ASCII	-7085
▁measuring	-7086
▁signals	-7087
$),	-7088
rime	-7089
▁inertia	-7090
▁timeout	-7091
▁replacing	-7092
▁Choose	-7093
▁cumulative	-7094
▁Sn	-7095
▁interpretation	-7096
ilos	-7097
semble	-7098
▁executing	-7099
▁His	-7100
▁warning	-7101
▁useful	-7102
▁Pa	-7103
▁interfaces	-7104
▁pixels	-7105
▁nm	-7106
eled	-7107
▁camp	-7108
▁dedu	-7109
substring	-7110
▁organisms	-7111
▁pruning	-7112
ogram	-7113
▁glob	-7114
▁cryst	-7115
itespace	-7116
▁reduction	-7117
▁assignment	-7118
▁cleanup	-7119
▁opening	-7120
db	-7121
▁$$$(	-7122
ameters	-7123
roduct	-7124
▁supply	-7125
▁utilize	-7126
tol	-7127
▁poin	-7128
▁held	-7129
▁aff	-7130
▁spend	-7131
ste	-7132
▁technique	-7133
▁NaCl	-7134
▁torque	-7135
▁pet	-7136
▁liter	-7137
▁Lowercase	-7138
▁AlternateCase	-7139
solving	-7140
▁nesting	-7141
condition	-7142
▁government	-7143
>(((	-7144
▁fro	-7145
▁[];\	-7146
▁firm	-7147
▁pandas	-7148
▁entered	-7149
▁intensity	-7150
▁tips	-7151
▁vowel	-7152
tou	-7153
cule	-7154
nums	-7155
▁clin	-7156
filtered	-7157
▁neighbor	-7158
SP	-7159
herical	-7160
segment	-7161
▁satellite	-7162
awn	-7163
▁According	-7164
afe	-7165
asp	-7166
Gamma	-7167
▁permissions	-7168
▁export	-7169
iew	-7170
vature	-7171
net	-7172
otlin	-7173
bert	-7174
member	-7175
▁dot	-7176
▁weighted	-7177
▁Princ	-7178
▁ult	-7179
▁conductor	-7180
▁contribution	-7181
','	-7182
entence	-7183
trained	-7184
Cont	-7185
====	-7186
etes	-7187
pair	-7188
craft	-7189
▁exceeding	-7190
CA	-7191
▁lexic	-7192
▁quantities	-7193
▁asking	-7194
ulations	-7195
▁inference	-7196
▁Once	-7197
itative	-7198
otic	-7199
▁GPU	-7200
quality	-7201
▁scales	-7202
mph	-7203
istory	-7204
▁bricks	-7205
▁revers	-7206
hell	-7207
▁alone	-7208
▁registers	-7209
)|	-7210
▁conclude	-7211
▁mountain	-7212
▁extraction	-7213
ontally	-7214
documented	-7215
Singleton	-7216
ivial	-7217
▁compl	-7218
▁patient	-7219
'\	-7220
style	-7221
fall	-7222
mult	-7223
▁Model	-7224
oriented	-7225
▁dry	-7226
▁pixel	-7227
▁quiet	-7228
▁Mean	-7229
▁regression	-7230
Next	-7231
▁intersect	-7232
If	-7233
▁midpoint	-7234
▁capacitor	-7235
▁Ter	-7236
CT	-7237
▁enables	-7238
▁locations	-7239
▁enabled	-7240
▁analytical	-7241
▁directed	-7242
▁reconstruction	-7243
▁outcomes	-7244
▁transformChar	-7245
▁cruc	-7246
▁ranging	-7247
▁specificity	-7248
▁reverseString	-7249
varphi	-7250
▁permutations	-7251
____	-7252
▁chlor	-7253
▁traditional	-7254
intermediate	-7255
▁emphas	-7256
^*	-7257
mbox	-7258
▁Int	-7259
▁outer	-7260
▁onto	-7261
MS	-7262
▁hom	-7263
▁CharCategory	-7264
ino	-7265
▁plates	-7266
)^{	-7267
▁trained	-7268
ica	-7269
▁sit	-7270
▁industry	-7271
quire	-7272
nAn	-7273
chang	-7274
Validator	-7275
▁isinstance	-7276
▁Polycarp	-7277
Vec	-7278
▁destruct	-7279
▁curvature	-7280
▁matplotlib	-7281
▁diameter	-7282
▁corresponds	-7283
▁alle	-7284
memoizer	-7285
Constraints	-7286
house	-7287
▁travels	-7288
veled	-7289
aved	-7290
▁snow	-7291
numbers	-7292
▁procedure	-7293
bin	-7294
▁biological	-7295
abs	-7296
▁stuck	-7297
▁necessit	-7298
otype	-7299
▁extracting	-7300
▁decrypt	-7301
duplicate	-7302
rep	-7303
▁Dev	-7304
}}{\\	-7305
toupper	-7306
▁buck	-7307
▁asynchronous	-7308
▁nearest	-7309
▁figures	-7310
▁Factory	-7311
▁mel	-7312
▁quickly	-7313
▁spl	-7314
draw	-7315
▁engage	-7316
▁diverse	-7317
^\	-7318
▁Tw	-7319
▁possess	-7320
▁cipher	-7321
▁department	-7322
compute	-7323
▁imported	-7324
▁palindromes	-7325
▁radio	-7326
▁horizontally	-7327
▁swe	-7328
▁innov	-7329
▁boundaries	-7330
▁trou	-7331
instein	-7332
▁typical	-7333
}}$	-7334
irac	-7335
▁forming	-7336
▁Over	-7337
▁standing	-7338
PUT	-7339
tan	-7340
▁basket	-7341
▁replacements	-7342
De	-7343
orter	-7344
▁fish	-7345
▁alter	-7346
▁completed	-7347
▁grows	-7348
▁templ	-7349
▁calling	-7350
▁shooting	-7351
▁\\,	-7352
▁fewer	-7353
▁underscores	-7354
▁em	-7355
▁{\\	-7356
▁rear	-7357
▁Class	-7358
▁paint	-7359
▁asks	-7360
▁strictly	-7361
▁underp	-7362
▁sharing	-7363
▁sand	-7364
berg	-7365
▁guard	-7366
▁editor	-7367
FF	-7368
▁https	-7369
▁ceiling	-7370
Sub	-7371
atin	-7372
words	-7373
▁subclass	-7374
▁Every	-7375
▁freedom	-7376
▁Ident	-7377
▁Complete	-7378
▁invariant	-7379
▁diss	-7380
▁intellig	-7381
,$	-7382
hold	-7383
sych	-7384
tilde	-7385
▁none	-7386
▁descriptions	-7387
italize	-7388
▁demands	-7389
Uppercase	-7390
▁Key	-7391
▁abs	-7392
▁builds	-7393
▁driving	-7394
▁Cont	-7395
▁Callable	-7396
▁Stud	-7397
▁excess	-7398
▁CharType	-7399
▁dashboard	-7400
ppings	-7401
▁bodies	-7402
▁imag	-7403
MP	-7404
nWe	-7405
▁OR	-7406
Size	-7407
▁advantage	-7408
▁curves	-7409
▁jud	-7410
▁resil	-7411
▁COâ	-7412
▁loaded	-7413
▁strateg	-7414
▁young	-7415
▁ignore	-7416
▁necessarily	-7417
oph	-7418
lier	-7419
▁$-	-7420
▁Where	-7421
#.	-7422
yl	-7423
▁shots	-7424
riers	-7425
▁customization	-7426
▁executes	-7427
▁spell	-7428
▁orbits	-7429
▁pounds	-7430
▁artifact	-7431
▁successfully	-7432
▁shad	-7433
osis	-7434
ueue	-7435
▁illustrate	-7436
▁Dis	-7437
▁decode	-7438
▁buttons	-7439
▁sus	-7440
▁scalable	-7441
▁verification	-7442
alled	-7443
▁arran	-7444
▁recognition	-7445
▁quot	-7446
Builder	-7447
▁wanted	-7448
▁na	-7449
tein	-7450
pecially	-7451
sed	-7452
▁Four	-7453
▁greatest	-7454
ki	-7455
▁bring	-7456
appy	-7457
▁masses	-7458
▁challenging	-7459
oura	-7460
▁YAML	-7461
▁reached	-7462
onant	-7463
▁phr	-7464
▁savings	-7465
▁Kotlin	-7466
▁ion	-7467
▁encrypted	-7468
:])	-7469
▁SV	-7470
ung	-7471
▁archive	-7472
▁})	-7473
▁brute	-7474
▁suffix	-7475
orph	-7476
▁availability	-7477
▁Â	-7478
▁Template	-7479
▁assertions	-7480
▁bytes	-7481
▁characteristics	-7482
▁derivation	-7483
asya	-7484
▁elev	-7485
duplicates	-7486
▁insertion	-7487
}+\\	-7488
▁behavi	-7489
▁assembly	-7490
▁symmetric	-7491
▁Bro	-7492
inating	-7493
ensive	-7494
▁dense	-7495
MM	-7496
▁finish	-7497
Toggle	-7498
▁Follow	-7499
▁bacteria	-7500
▁approximation	-7501
ilk	-7502
▁goods	-7503
▁perimeter	-7504
ubble	-7505
select	-7506
▁voting	-7507
▁accurately	-7508
lands	-7509
▁crucial	-7510
▁El	-7511
▁principal	-7512
▁alternating	-7513
marily	-7514
▁chunks	-7515
▁prepar	-7516
▁involving	-7517
hand	-7518
▁spir	-7519
▁collaboration	-7520
▁Art	-7521
▁Rob	-7522
▁seamless	-7523
▁morning	-7524
oke	-7525
▁soon	-7526
substr	-7527
▁channels	-7528
▁Part	-7529
▁priv	-7530
▁mL	-7531
▁widget	-7532
▁Sci	-7533
▁regex	-7534
▁Sum	-7535
▁narr	-7536
▁spherical	-7537
▁Would	-7538
▁weapon	-7539
▁alternative	-7540
▁Default	-7541
▁substrings	-7542
▁trajectory	-7543
Lowercase	-7544
▁wish	-7545
▁`[	-7546
▁utilizing	-7547
nCan	-7548
hash	-7549
▁searching	-7550
▁convolutional	-7551
▁Brit	-7552
▁North	-7553
▁discussion	-7554
▁apples	-7555
unanswerable	-7556
▁rooted	-7557
atus	-7558
▁logger	-7559
▁indicates	-7560
▁\\\\	-7561
▁printed	-7562
phan	-7563
imately	-7564
▁transmission	-7565
oons	-7566
mentation	-7567
urban	-7568
uries	-7569
▁adult	-7570
▁roles	-7571
▁validated	-7572
▁uncertainty	-7573
▁composition	-7574
▁Mem	-7575
chunk	-7576
▁appe	-7577
ashion	-7578
▁stone	-7579
▁reacts	-7580
ese	-7581
▁physic	-7582
▁heav	-7583
__`	-7584
▁attract	-7585
▁swapped	-7586
ivil	-7587
▁pret	-7588
▁polit	-7589
▁ratios	-7590
▁philos	-7591
▁periodic	-7592
▁\{	-7593
chemy	-7594
▁epoch	-7595
ivistic	-7596
▁revolution	-7597
▁appreciated	-7598
▁leaving	-7599
▁Specifically	-7600
'}\	-7601
pack	-7602
wide	-7603
▁surve	-7604
▁branches	-7605
csv	-7606
▁rays	-7607
▁bed	-7608
compress	-7609
▁meticulously	-7610
▁Options	-7611
▁Windows	-7612
)`:	-7613
▁navigate	-7614
??	-7615
▁RemoveVowels	-7616
merge	-7617
▁declar	-7618
▁hope	-7619
opes	-7620
▁stones	-7621
▁actor	-7622
▁animal	-7623
Property	-7624
▁divisor	-7625
LP	-7626
▁UT	-7627
rie	-7628
▁denote	-7629
▁traveled	-7630
▁cro	-7631
▁York	-7632
person	-7633
▁anom	-7634
▁retrieves	-7635
▁parents	-7636
▁dominoes	-7637
▁Increment	-7638
▁$$$\	-7639
▁mixture	-7640
TPUT	-7641
▁Work	-7642
]:	-7643
▁Wikipedia	-7644
▁molecule	-7645
▁Top	-7646
▁knows	-7647
ocation	-7648
▁labeled	-7649
▁neutron	-7650
▁caused	-7651
▁rights	-7652
▁visually	-7653
▁ded	-7654
}_{\\	-7655
▁suppose	-7656
▁Med	-7657
▁queues	-7658
ProcessingStep	-7659
fe	-7660
▁leads	-7661
▁OU	-7662
ades	-7663
Ad	-7664
▁pump	-7665
)/	-7666
▁scene	-7667
lose	-7668
Field	-7669
▁tire	-7670
SA	-7671
Par	-7672
apan	-7673
ether	-7674
▁thous	-7675
▁denominations	-7676
mers	-7677
Expl	-7678
▁Vasya	-7679
▁twe	-7680
ensus	-7681
▁covers	-7682
▁lookup	-7683
▁LowerCase	-7684
▁fif	-7685
▁graphs	-7686
aff	-7687
▁("	-7688
▁horm	-7689
oom	-7690
▁nitrogen	-7691
▁realistic	-7692
▁galax	-7693
▁asteroids	-7694
<=	-7695
iterator	-7696
▁debugging	-7697
▁historical	-7698
oT	-7699
▁modeling	-7700
approx	-7701
▁denoted	-7702
ief	-7703
anges	-7704
▁Christ	-7705
▁</	-7706
Hub	-7707
▁satisfying	-7708
▁INPUT	-7709
shiftCache	-7710
▁legs	-7711
▁weeks	-7712
▁importing	-7713
▁panel	-7714
▁pseud	-7715
▁defend	-7716
isher	-7717
▁giving	-7718
▁foundation	-7719
▁reduces	-7720
▁OUTPUT	-7721
calculate	-7722
ocr	-7723
▁ri	-7724
▁breaking	-7725
▁zeros	-7726
iration	-7727
▁templates	-7728
sim	-7729
erfect	-7730
handle	-7731
▁discs	-7732
delete	-7733
▁goals	-7734
▁indicate	-7735
▁controller	-7736
isp	-7737
true	-7738
▁Aut	-7739
▁selecting	-7740
▁exclude	-7741
▁revealed	-7742
ategies	-7743
▁Tra	-7744
▁aver	-7745
▁adopt	-7746
▁meets	-7747
▁plain	-7748
▁French	-7749
▁contribute	-7750
▁especially	-7751
▁fert	-7752
▁bullets	-7753
▁Great	-7754
▁Multiple	-7755
target	-7756
▁colored	-7757
▁parentheses	-7758
▁German	-7759
▁boost	-7760
▁combo	-7761
nAl	-7762
▁typed	-7763
▁slit	-7764
▁periods	-7765
connected	-7766
▁cornerstone	-7767
Iter	-7768
▁anti	-7769
▁worst	-7770
▁Principle	-7771
isdigit	-7772
▁rounded	-7773
▁serialization	-7774
BB	-7775
just	-7776
Oâ	-7777
▁fabric	-7778
▁iterations	-7779
dy	-7780
▁Feâ	-7781
▁reactions	-7782
▁leaf	-7783
characters	-7784
parse	-7785
▁salt	-7786
geq	-7787
▁bounding	-7788
uly	-7789
undred	-7790
▁photos	-7791
▁sounds	-7792
aker	-7793
▁Her	-7794
▁primarily	-7795
Acc	-7796
Set	-7797
▁gar	-7798
oxide	-7799
hether	-7800
atures	-7801
lib	-7802
▁wrapper	-7803
]):\	-7804
isible	-7805
▁outcome	-7806
▁correction	-7807
ba	-7808
▁chocol	-7809
▁aug	-7810
▁beautiful	-7811
▁StrategyFactory	-7812
osphere	-7813
Stack	-7814
▁rocks	-7815
▁scrap	-7816
▁scoring	-7817
▁traverse	-7818
▁DataFrame	-7819
Form	-7820
▁Stuff	-7821
▁meter	-7822
▁massive	-7823
▁agricult	-7824
▁gems	-7825
▁vote	-7826
linear	-7827
▁traveling	-7828
spe	-7829
formation	-7830
Func	-7831
▁focal	-7832
▁rolling	-7833
attle	-7834
▁splitting	-7835
]$.	-7836
▁assumption	-7837
fill	-7838
that	-7839
inate	-7840
Implement	-7841
▁quarterly	-7842
▁identifying	-7843
▁schedule	-7844
ji	-7845
▁developers	-7846
tenance	-7847
▁clarity	-7848
Remover	-7849
▁packet	-7850
▁gran	-7851
▁aliens	-7852
▁cleared	-7853
▁composed	-7854
▁font	-7855
making	-7856
replacements	-7857
forward	-7858
▁thr	-7859
iliar	-7860
▁indexing	-7861
api	-7862
organ	-7863
▁significance	-7864
▁ReverseStrategy	-7865
▁Inv	-7866
▁Mongo	-7867
mas	-7868
eless	-7869
▁prev	-7870
aeiouAEIOU	-7871
ubern	-7872
▁http	-7873
▁Select	-7874
▁aware	-7875
▁explo	-7876
AL	-7877
▁..	-7878
Queue	-7879
▁supported	-7880
▁audit	-7881
▁compan	-7882
ativity	-7883
*.	-7884
▁stops	-7885
ubernetes	-7886
▁ions	-7887
ourier	-7888
▁rooms	-7889
▁extended	-7890
▁classifier	-7891
▁wat	-7892
▁mappings	-7893
▁intuitive	-7894
▁Sm	-7895
▁distingu	-7896
▁determining	-7897
▁bos	-7898
▁norm	-7899
▁holes	-7900
▁vision	-7901
▁Command	-7902
Decorator	-7903
positive	-7904
▁harness	-7905
ensh	-7906
free	-7907
▁lap	-7908
▁Japan	-7909
▁wildcard	-7910
▁upward	-7911
▁visibility	-7912
▁lexicograph	-7913
▁paradig	-7914
▁specification	-7915
▁curious	-7916
▁explore	-7917
▁Meanwhile	-7918
enumerate	-7919
▁toler	-7920
su	-7921
▁arg	-7922
▁saying	-7923
=(	-7924
lig	-7925
▁ready	-7926
▁identifier	-7927
▁proceed	-7928
▁gram	-7929
▁pert	-7930
stream	-7931
vision	-7932
▁nuclear	-7933
▁dividing	-7934
▁shiftChar	-7935
▁cele	-7936
▁involve	-7937
▁ferm	-7938
▁Cal	-7939
▁trust	-7940
▁candidate	-7941
▁timestamps	-7942
▁Tree	-7943
▁contest	-7944
▁equally	-7945
▁court	-7946
rew	-7947
]/.	-7948
▁drift	-7949
▁sports	-7950
sequence	-7951
%.	-7952
▁Ste	-7953
▁faces	-7954
▁maybe	-7955
▁Imagine	-7956
▁Caesar	-7957
Log	-7958
aware	-7959
▁chance	-7960
Encoder	-7961
▁sometimes	-7962
▁shifts	-7963
▁equality	-7964
}$$	-7965
lope	-7966
friend	-7967
▁sliding	-7968
▁visited	-7969
▁Af	-7970
▁`_	-7971
▁nearly	-7972
▁cookies	-7973
▁fashion	-7974
▁hypothesis	-7975
▁'')	-7976
aught	-7977
▁equip	-7978
▁remark	-7979
▁lighting	-7980
▁solver	-7981
▁perhaps	-7982
▁simulates	-7983
▁recommendations	-7984
****	-7985
▁Desc	-7986
▁wheel	-7987
▁Cloud	-7988
▁viscos	-7989
▁imagine	-7990
▁observation	-7991
nstring	-7992
▁drops	-7993
▁procedural	-7994
▁retain	-7995
▁topics	-7996
▁learned	-7997
▁deletion	-7998
▁hyperpar	-7999
▁Hâ	-8000
▁compression	-8001
▁Connect	-8002
▁sampling	-8003
nal	-8004
vare	-8005
acer	-8006
▁computed	-8007
▁multiplied	-8008
▁architectural	-8009
itter	-8010
urance	-8011
▁reporting	-8012
arg	-8013
learn	-8014
▁correspond	-8015
CO	-8016
ceil	-8017
▁concentr	-8018
oplus	-8019
ffee	-8020
kw	-8021
▁ama	-8022
▁occupied	-8023
Explanation	-8024
▁emission	-8025
▁orient	-8026
▁qual	-8027
Own	-8028
▁led	-8029
isely	-8030
▁GitHub	-8031
▁established	-8032
Vowel	-8033
▁ring	-8034
▁forest	-8035
▁scheme	-8036
olt	-8037
▁QFT	-8038
▁Einstein	-8039
▁experiences	-8040
▁UFO	-8041
▁mixed	-8042
▁applic	-8043
▁dioxide	-8044
▁spacebar	-8045
▁protocols	-8046
post	-8047
▁[])	-8048
▁minimax	-8049
▁diagrams	-8050
▁switching	-8051
▁Roman	-8052
▁canvas	-8053
▁plotting	-8054
▁maintenance	-8055
▁Sun	-8056
▁visualize	-8057
▁clauses	-8058
▁landscape	-8059
▁centimeters	-8060
▁cryptographic	-8061
▁circles	-8062
▁occurrence	-8063
▁offers	-8064
▁recipes	-8065
▁shields	-8066
We	-8067
▁EM	-8068
▁TCP	-8069
▁clinic	-8070
varepsilon	-8071
▁published	-8072
PT	-8073
▁education	-8074
rip	-8075
++++	-8076
▁South	-8077
▁labor	-8078
▁hundred	-8079
▁universal	-8080
▁brand	-8081
▁invariants	-8082
▁responsible	-8083
AA	-8084
]:\	-8085
▁town	-8086
degree	-8087
▁pipes	-8088
}-\\	-8089
▁viscosity	-8090
▁participants	-8091
▁Wow	-8092
GL	-8093
▁AR	-8094
▁dedicated	-8095
long	-8096
oken	-8097
rought	-8098
▁Single	-8099
####	-8100
▁moved	-8101
▁isLower	-8102
Spec	-8103
You	-8104
▁${	-8105
▁bitwise	-8106
inner	-8107
ncing	-8108
▁reci	-8109
Cipher	-8110
▁solved	-8111
▁closing	-8112
▁payload	-8113
▁&=	-8114
augh	-8115
trans	-8116
▁spaceship	-8117
Image	-8118
▁probably	-8119
▁mother	-8120
▁City	-8121
ervice	-8122
OwnProperty	-8123
This	-8124
ague	-8125
stealing	-8126
▁colle	-8127
▁strug	-8128
▁transforming	-8129
▁organic	-8130
hasOwnProperty	-8131
alt	-8132
::-	-8133
▁Str	-8134
▁urban	-8135
▁stationary	-8136
▁inheritance	-8137
▁Kubernetes	-8138
▁rewards	-8139
▁DE	-8140
▁portion	-8141
▁tun	-8142
points	-8143
▁probabilities	-8144
RU	-8145
▁machines	-8146
▁addressing	-8147
▁dram	-8148
▁strategic	-8149
▁scattering	-8150
encing	-8151
ership	-8152
iguous	-8153
▁MongoDB	-8154
ario	-8155
▁women	-8156
▁circul	-8157
▁BCE	-8158
▁assumptions	-8159
})$	-8160
▁specifications	-8161
▁motor	-8162
▁plans	-8163
▁Additional	-8164
rets	-8165
▁apps	-8166
▁dialogue	-8167
▁explan	-8168
▁billion	-8169
;=	-8170
there	-8171
▁hardware	-8172
▁arrangement	-8173
)+	-8174
▁narrative	-8175
▁likes	-8176
▁latest	-8177
++,	-8178
upt	-8179
books	-8180
▁downlo	-8181
▁invinc	-8182
▁mismat	-8183
▁catch	-8184
▁widely	-8185
▁Conversely	-8186
▁whitespace	-8187
aver	-8188
▁suppl	-8189
▁observations	-8190
▁amb	-8191
▁})();\	-8192
By	-8193
▁Hz	-8194
▁explicitly	-8195
▁alb	-8196
▁eye	-8197
ilies	-8198
rotate	-8199
▁trains	-8200
criptions	-8201
▁AC	-8202
▁cond	-8203
▁experimental	-8204
aven	-8205
▁receives	-8206
kin	-8207
idation	-8208
▁claims	-8209
▁invincibility	-8210
urch	-8211
▁Gaussian	-8212
▁ban	-8213
object	-8214
▁Evolution	-8215
}{(	-8216
enshtein	-8217
▁implementations	-8218
▁civil	-8219
▁fusion	-8220
▁Rel	-8221
otimes	-8222
▁wood	-8223
ancer	-8224
▁ROT	-8225
▁Good	-8226
▁sleep	-8227
▁Sentence	-8228
{-	-8229
oration	-8230
▁University	-8231
▁flexible	-8232
▁objective	-8233
▁girl	-8234
umption	-8235
▁demonstrated	-8236
▁socket	-8237
stood	-8238
▁BFS	-8239
▁Config	-8240
▁iterator	-8241
}{\	-8242
▁toggled	-8243
ucl	-8244
▁Cir	-8245
▁acade	-8246
▁discrete	-8247
YES	-8248
▁SS	-8249
▁tank	-8250
▁pretty	-8251
▁votes	-8252
▁contacts	-8253
▁supposed	-8254
▁slope	-8255
▁OS	-8256
▁industrial	-8257
nU	-8258
ateral	-8259
▁steel	-8260
▁conserved	-8261
▁promot	-8262
▁millions	-8263
ymmet	-8264
▁gather	-8265
▁respawn	-8266
▁nucleus	-8267
DP	-8268
aset	-8269
▁interpreter	-8270
gent	-8271
▁Wrong	-8272
▁Optimize	-8273
▁complement	-8274
▁Har	-8275
Chain	-8276
▁extrem	-8277
nAs	-8278
pressure	-8279
functions	-8280
▁cup	-8281
▁accum	-8282
tics	-8283
▁Latin	-8284
▁substant	-8285
▁()	-8286
iders	-8287
▁balancing	-8288
▁Ber	-8289
▁Of	-8290
▁cert	-8291
▁regardless	-8292
▁rub	-8293
▁worth	-8294
▁chooses	-8295
unte	-8296
angled	-8297
[::-	-8298
▁recipe	-8299
item	-8300
▁hierarchical	-8301
▁king	-8302
▁priorit	-8303
▁Event	-8304
▁capacit	-8305
▁buildString	-8306
▁os	-8307
▁park	-8308
▁psych	-8309
memoize	-8310
▁configured	-8311
▁gear	-8312
▁coffee	-8313
ountered	-8314
▁cleaning	-8315
▁showcase	-8316
▁developed	-8317
▁classic	-8318
▁estimate	-8319
▁generally	-8320
▁protein	-8321
▁constructed	-8322
▁gift	-8323
▁soph	-8324
Config	-8325
▁artist	-8326
▁university	-8327
.$	-8328
▁bin	-8329
▁Alex	-8330
▁diagon	-8331
▁processString	-8332
holder	-8333
▁decreases	-8334
oday	-8335
▁combining	-8336
▁naming	-8337
▁validating	-8338
▁orche	-8339
▁frequently	-8340
]));\	-8341
▁fasc	-8342
Strategies	-8343
additional	-8344
▁incrementally	-8345
amm	-8346
hole	-8347
▁parsed	-8348
else	-8349
▁cogn	-8350
▁desert	-8351
▁ending	-8352
▁sea	-8353
▁club	-8354
▁eigenvalues	-8355
dp	-8356
sers	-8357
quest	-8358
▁spacing	-8359
conson	-8360
idates	-8361
▁Intern	-8362
NG	-8363
=-	-8364
▁Er	-8365
▁sod	-8366
▁Fourier	-8367
---	-8368
aders	-8369
icode	-8370
inger	-8371
▁surrounding	-8372
▁Hy	-8373
▁definitely	-8374
▁problematic	-8375
rim	-8376
'))\	-8377
▁moles	-8378
ocument	-8379
▁wavelengths	-8380
▁usual	-8381
▁amazing	-8382
▁destructible	-8383
▁reus	-8384
integer	-8385
▁raising	-8386
▁leverage	-8387
alone	-8388
▁sheet	-8389
▁lect	-8390
▁cycles	-8391
finalize	-8392
▁Physics	-8393
QR	-8394
▁families	-8395
lst	-8396
main	-8397
▁oil	-8398
▁Te	-8399
▁La	-8400
lement	-8401
▁confidence	-8402
▁PDF	-8403
ortunately	-8404
abil	-8405
▁sky	-8406
▁ocean	-8407
▁passage	-8408
auth	-8409
▁integrating	-8410
see	-8411
▁placing	-8412
=[	-8413
ym	-8414
cious	-8415
etwork	-8416
▁bosses	-8417
nThanks	-8418
▁wheels	-8419
▁passeng	-8420
▁regarding	-8421
▁Dict	-8422
▁driven	-8423
▁isUpper	-8424
OP	-8425
▁sed	-8426
▁master	-8427
ompl	-8428
▁arc	-8429
▁redirect	-8430
nDoes	-8431
▁turning	-8432
opy	-8433
▁Ark	-8434
▁leveraging	-8435
▁Big	-8436
▁naive	-8437
▁happy	-8438
▁excited	-8439
$$$).	-8440
▁brain	-8441
▁Dirac	-8442
▁father	-8443
▁balloons	-8444
\}	-8445
File	-8446
()(	-8447
▁BST	-8448
extend	-8449
▁eating	-8450
▁Battle	-8451
▁defendant	-8452
▁parallelism	-8453
quare	-8454
nWhere	-8455
▁decou	-8456
non	-8457
▁reject	-8458
▁enhanced	-8459
▁chess	-8460
▁polygon	-8461
serve	-8462
▁Cor	-8463
black	-8464
▁woman	-8465
▁adhere	-8466
▁convex	-8467
▁differ	-8468
▁Second	-8469
)]\	-8470
▁encoura	-8471
▁monitor	-8472
▁predicted	-8473
▁vo	-8474
▁gate	-8475
▁accompl	-8476
▁sustainable	-8477
▁arm	-8478
▁standards	-8479
joy	-8480
zA	-8481
rote	-8482
▁Plan	-8483
▁rotations	-8484
ctors	-8485
▁serving	-8486
▁ordering	-8487
▁IoT	-8488
asons	-8489
▁finalize	-8490
▁offering	-8491
▁testcase	-8492
("$	-8493
▁Tic	-8494
▁influenced	-8495
(&(	-8496
Item	-8497
utor	-8498
apers	-8499
▁respond	-8500
contain	-8501
▁browser	-8502
▁handlers	-8503
▁allocation	-8504
({	-8505
▁employed	-8506
▁formulas	-8507
▁transient	-8508
aming	-8509
▁definite	-8510
▁exempl	-8511
$",	-8512
▁sear	-8513
▁Cipher	-8514
▁maxim	-8515
▁efforts	-8516
▁hon	-8517
vin	-8518
hern	-8519
sions	-8520
▁north	-8521
▁expert	-8522
adec	-8523
nThen	-8524
▁invisible	-8525
▁satisfied	-8526
eprint	-8527
pert	-8528
phanumeric	-8529
▁defe	-8530
▁abilities	-8531
▁mal	-8532
▁installed	-8533
\\,	-8534
▁Memory	-8535
▁destroyed	-8536
history	-8537
▁turned	-8538
▁suggestions	-8539
mport	-8540
▁tail	-8541
Person	-8542
▁couldn	-8543
AG	-8544
iate	-8545
▁emit	-8546
generate	-8547
▁appreciate	-8548
▁brother	-8549
node	-8550
adecimal	-8551
instances	-8552
▁keywords	-8553
▁distribute	-8554
&,	-8555
dir	-8556
View	-8557
▁secondary	-8558
elsius	-8559
Of	-8560
▁scientists	-8561
▁Ins	-8562
▁interrupt	-8563
\,	-8564
▁sums	-8565
coded	-8566
▁hear	-8567
recurse	-8568
▁flying	-8569
example	-8570
▁watch	-8571
interface	-8572
▁coverage	-8573
▁centuries	-8574
▁SH	-8575
reverser	-8576
▁collective	-8577
LS	-8578
enter	-8579
▁thin	-8580
ensitive	-8581
▁river	-8582
▁explained	-8583
▁flight	-8584
▁singular	-8585
▁constructs	-8586
▁Reg	-8587
▁War	-8588
▁estimated	-8589
nced	-8590
▁novel	-8591
product	-8592
Ob	-8593
▁candy	-8594
combine	-8595
▁pickle	-8596
▁explanations	-8597
Lev	-8598
onants	-8599
▁Subtask	-8600
▁hitting	-8601
▁meeting	-8602
▁office	-8603
▁Such	-8604
▁extensions	-8605
▁encountered	-8606
osure	-8607
▁[]);\	-8608
▁agency	-8609
▁speech	-8610
)-	-8611
STM	-8612
\\\\\	-8613
▁premise	-8614
}]	-8615
+\	-8616
▁rich	-8617
arithm	-8618
totype	-8619
▁Describe	-8620
▁purchase	-8621
▁Initially	-8622
▁triangles	-8623
▁arranged	-8624
cope	-8625
▁union	-8626
▁barriers	-8627
▁somehow	-8628
anish	-8629
▁standalone	-8630
rs	-8631
Tac	-8632
graph	-8633
▁rigid	-8634
▁reserv	-8635
▁steady	-8636
fort	-8637
▁bid	-8638
▁relax	-8639
▁despite	-8640
▁containers	-8641
▁resolve	-8642
▁buildings	-8643
uge	-8644
▁intr	-8645
compass	-8646
▁assumed	-8647
▁pivotal	-8648
pa	-8649
▁Jan	-8650
▁Who	-8651
▁broken	-8652
Toe	-8653
CC	-8654
▁Ag	-8655
heres	-8656
estry	-8657
going	-8658
▁favorite	-8659
▁owner	-8660
▁bridge	-8661
▁deeply	-8662
▁lack	-8663
kwargs	-8664
▁fluctu	-8665
Modifier	-8666
^{(	-8667
asure	-8668
▁stats	-8669
▁repeating	-8670
Levenshtein	-8671
ha	-8672
wra	-8673
arse	-8674
▁APIs	-8675
▁React	-8676
▁previously	-8677
▁preprocess	-8678
▁risks	-8679
Earth	-8680
vable	-8681
▁currents	-8682
buffer	-8683
▁shuffle	-8684
▁AND	-8685
▁everyday	-8686
kl	-8687
pling	-8688
▁recip	-8689
▁infrared	-8690
uffman	-8691
▁copper	-8692
)));\	-8693
▁opportun	-8694
▁discovery	-8695
▁preserves	-8696
memoReverse	-8697
rc	-8698
▁absorption	-8699
)).	-8700
▁resh	-8701
)$$$	-8702
▁chemistry	-8703
▁comprehension	-8704
frame	-8705
▁commonly	-8706
▁normalized	-8707
It	-8708
Com	-8709
bot	-8710
oms	-8711
▁coupon	-8712
▁trouble	-8713
lation	-8714
▁submit	-8715
Rec	-8716
▁Ext	-8717
▁NOT	-8718
nAlso	-8719
▁wouldn	-8720
know	-8721
imate	-8722
mt	-8723
▁followers	-8724
▁dogs	-8725
null	-8726
itudes	-8727
▁explains	-8728
▁consumption	-8729
gr	-8730
▁subtraction	-8731
▁distributions	-8732
▁OpenCV	-8733
▁celebr	-8734
▁portfol	-8735
▁discovered	-8736
cacheManager	-8737
▁microscopic	-8738
}$.\	-8739
▁technologies	-8740
uk	-8741
isticated	-8742
▁continues	-8743
eras	-8744
▁behaviors	-8745
zon	-8746
▁ingredients	-8747
eli	-8748
▁ur	-8749
▁hab	-8750
▁High	-8751
▁movements	-8752
▁cit	-8753
Exception	-8754
yard	-8755
RR	-8756
change	-8757
▁secrets	-8758
▁academic	-8759
PE	-8760
/\\	-8761
ilbert	-8762
▁pitch	-8763
▁splits	-8764
▁padding	-8765
float	-8766
Filter	-8767
▁communities	-8768
▁mini	-8769
nThere	-8770
▁crossing	-8771
`)	-8772
▁'*	-8773
Recur	-8774
▁Count	-8775
▁automation	-8776
casting	-8777
▁variations	-8778
▁fan	-8779
▁matched	-8780
▁'/	-8781
▁XOR	-8782
update	-8783
▁Because	-8784
▁organized	-8785
▁similarity	-8786
:],	-8787
arks	-8788
▁Name	-8789
▁Paul	-8790
▁sophisticated	-8791
balancing	-8792
▁rigorous	-8793
▁'.	-8794
▁era	-8795
▁textbook	-8796
▁encompass	-8797
▁interacting	-8798
▁flood	-8799
▁relig	-8800
oe	-8801
▁ramp	-8802
▁stands	-8803
▁companies	-8804
▁Sam	-8805
ooter	-8806
▁cancel	-8807
▁Visitor	-8808
▁normalize	-8809
▁relatively	-8810
▁conductivity	-8811
▁Lin	-8812
ulates	-8813
changed	-8814
▁insight	-8815
MB	-8816
▁trading	-8817
placed	-8818
▁scripts	-8819
▁logarithm	-8820
▁initialized	-8821
'],	-8822
nel	-8823
▁annually	-8824
▁energies	-8825
▁contiguous	-8826
▁Afric	-8827
Le	-8828
▁manual	-8829
▁Gree	-8830
▁mutual	-8831
▁repeat	-8832
▁planets	-8833
▁servers	-8834
SU	-8835
Time	-8836
▁divisors	-8837
▁dimensional	-8838
▁transportation	-8839
ky	-8840
▁Android	-8841
▁expenses	-8842
▁perturb	-8843
▁unordered	-8844
▁remarkable	-8845
transformChar	-8846
▁Tet	-8847
▁Number	-8848
▁interference	-8849
▁indexes	-8850
▁consensus	-8851
▁::	-8852
reme	-8853
▁hexadecimal	-8854
';	-8855
'}	-8856
mann	-8857
▁editing	-8858
▁ethical	-8859
With	-8860
▁precisely	-8861
▁investig	-8862
▁Bird	-8863
:-----	-8864
▁carefully	-8865
▁son	-8866
▁proposed	-8867
▁Hence	-8868
▁macro	-8869
▁enters	-8870
▁Mechan	-8871
▁policies	-8872
▁(?	-8873
▁wrote	-8874
▁implies	-8875
▁decentral	-8876
▁tester	-8877
▁currency	-8878
▁meaningful	-8879
▁simplicity	-8880
▁subscriptions	-8881
hello	-8882
▁mental	-8883
Alphabetic	-8884
wiki	-8885
▁ecosystems	-8886
▁snippets	-8887
ii	-8888
▁tend	-8889
▁slide	-8890
ufact	-8891
▁switches	-8892
^[	-8893
ops	-8894
cose	-8895
▁Po	-8896
aust	-8897
▁domains	-8898
▁requirement	-8899
IP	-8900
perform	-8901
states	-8902
combined	-8903
▁enhancing	-8904
▁Ac	-8905
▁minus	-8906
▁specialized	-8907
care	-8908
▁overlap	-8909
▁Isometric	-8910
▁Today	-8911
▁humans	-8912
▁suprise	-8913
▁propagation	-8914
▁Just	-8915
▁StuffProcessor	-8916
▁Gr	-8917
elements	-8918
▁Iterator	-8919
▁launch	-8920
StringProcessor	-8921
▁King	-8922
▁obstacle	-8923
▁evapor	-8924
▁preced	-8925
table	-8926
▁penalty	-8927
▁blueprint	-8928
▁doors	-8929
▁houses	-8930
▁observe	-8931
▁equipment	-8932
▁installation	-8933
▁Bas	-8934
allow	-8935
sorted	-8936
alindrome	-8937
▁compiler	-8938
▁societ	-8939
▁enumerations	-8940
▁epis	-8941
ductive	-8942
cacheKey	-8943
▁amounts	-8944
)*	-8945
aus	-8946
ondon	-8947
nusing	-8948
rained	-8949
▁waste	-8950
▁powers	-8951
▁multiplayer	-8952
'){\	-8953
▁sharp	-8954
▁merges	-8955
bl	-8956
edge	-8957
▁street	-8958
what	-8959
▁Bar	-8960
endar	-8961
▁titles	-8962
▁tensors	-8963
▁interleave	-8964
▁jo	-8965
▁Ang	-8966
reasing	-8967
?.	-8968
Order	-8969
protocol	-8970
▁glucose	-8971
▁haz	-8972
▁Another	-8973
safe	-8974
▁compact	-8975
▁tapestry	-8976
▁boy	-8977
▁Problem	-8978
▁situations	-8979
stage	-8980
▁nice	-8981
▁collapse	-8982
interle	-8983
▁myself	-8984
▁decouple	-8985
▁packets	-8986
anger	-8987
worker	-8988
▁accumulate	-8989
▁dip	-8990
▁infinity	-8991
▁kit	-8992
▁Text	-8993
dinger	-8994
vanced	-8995
eath	-8996
▁Thank	-8997
▁ticket	-8998
▁volunte	-8999
He	-9000
▁AV	-9001
auto	-9002
water	-9003
distance	-9004
▁excluding	-9005
▁astr	-9006
▁Power	-9007
▁Celsius	-9008
active	-9009
istrib	-9010
▁inertial	-9011
▁international	-9012
▁fifth	-9013
▁generic	-9014
▁fem	-9015
▁conventions	-9016
▁Take	-9017
ruction	-9018
operator	-9019
rich	-9020
ulum	-9021
izers	-9022
half	-9023
▁subsets	-9024
▁everyone	-9025
ouble	-9026
▁shut	-9027
▁primes	-9028
▁acqu	-9029
▁cone	-9030
▁Ed	-9031
▁hal	-9032
▁clip	-9033
▁divides	-9034
▁info	-9035
▁culture	-9036
▁{"	-9037
▁\,	-9038
▁Tom	-9039
clear	-9040
nn	-9041
▁phases	-9042
▁extremely	-9043
▁producing	-9044
▁orth	-9045
▁binding	-9046
oup	-9047
▁Cube	-9048
▁independ	-9049
▁analyzing	-9050
keys	-9051
▁waiting	-9052
▁compatible	-9053
LA	-9054
▁tells	-9055
▁stated	-9056
CR	-9057
▁cos	-9058
▁Green	-9059
aborate	-9060
tolower	-9061
▁Require	-9062
▁frequent	-9063
▁restrict	-9064
▁preventing	-9065
▁rotational	-9066
▁burst	-9067
▁dated	-9068
requency	-9069
▁exhaust	-9070
▁designing	-9071
},\\	-9072
aneous	-9073
concat	-9074
encoder	-9075
ills	-9076
▁pip	-9077
▁tet	-9078
▁realm	-9079
▁populations	-9080
▁Document	-9081
▁familiar	-9082
processRecursive	-9083
dev	-9084
Even	-9085
▁Eucl	-9086
▁{}	-9087
▁backs	-9088
▁Tetris	-9089
▁globals	-9090
▁Ver	-9091
phone	-9092
▁closer	-9093
▁Maxwell	-9094
▁protons	-9095
ords	-9096
efore	-9097
▁disrupt	-9098
▁portfolio	-9099
itute	-9100
▁percentiles	-9101
▁Specification	-9102
info	-9103
()){\	-9104
▁apparent	-9105
▁reliability	-9106
▁:=	-9107
▁Have	-9108
▁tolerance	-9109
▁understood	-9110
▁contained	-9111
uality	-9112
▁east	-9113
▁mathematic	-9114
▁reasonable	-9115
ynman	-9116
▁Engine	-9117
▁beat	-9118
IL	-9119
▁Snake	-9120
▁variety	-9121
▁resident	-9122
▁mathematically	-9123
▁CNN	-9124
▁SU	-9125
▁rent	-9126
▁enhances	-9127
▁AB	-9128
▁ox	-9129
rand	-9130
▁covered	-9131
▁integrated	-9132
▁graceful	-9133
▁estimation	-9134
▁segmentation	-9135
▁Research	-9136
nLet	-9137
▁Response	-9138
▁destruction	-9139
▁periodically	-9140
▁Miss	-9141
▁charCode	-9142
▁maintains	-9143
▁skin	-9144
▁Defense	-9145
▁triggered	-9146
▁Last	-9147
▁incorporating	-9148
Not	-9149
▁talking	-9150
▁evaluates	-9151
▁architectures	-9152
▁combat	-9153
false	-9154
▁nutrients	-9155
TT	-9156
▁resid	-9157
wered	-9158
▁burn	-9159
▁empir	-9160
▁explosion	-9161
▁palindromic	-9162
reverseString	-9163
([\	-9164
ogical	-9165
trivial	-9166
▁readable	-9167
▁MPI	-9168
iable	-9169
▁himself	-9170
▁electricity	-9171
Action	-9172
▁confusion	-9173
reverseCache	-9174
clusions	-9175
▁manufact	-9176
▁wrapping	-9177
▁arrive	-9178
▁Article	-9179
▁rectangles	-9180
alks	-9181
dden	-9182
ours	-9183
▁diagonals	-9184
▁aâ	-9185
cipl	-9186
▁fruit	-9187
steroids	-9188
▁dropping	-9189
numeric	-9190
ams	-9191
▁gun	-9192
utils	-9193
▁Ke	-9194
▁Hig	-9195
▁Understanding	-9196
▁ath	-9197
▁raised	-9198
▁rapidly	-9199
command	-9200
▁Runner	-9201
LO	-9202
▁occupies	-9203
▁interior	-9204
▁proportion	-9205
▁fascinating	-9206
▁tur	-9207
idean	-9208
PIO	-9209
▁Gal	-9210
▁sys	-9211
▁sudden	-9212
▁literature	-9213
lue	-9214
▁veget	-9215
▁clearing	-9216
▁homework	-9217
▁thousands	-9218
False	-9219
▁pile	-9220
▁Query	-9221
▁validateInput	-9222
▁Pe	-9223
▁luck	-9224
▁helps	-9225
validator	-9226
▁<<	-9227
ector	-9228
▁loan	-9229
▁Fighting	-9230
▁descend	-9231
tree	-9232
▁Strang	-9233
▁elegance	-9234
▁registered	-9235
▁thresholds	-9236
▁possibility	-9237
nWhen	-9238
▁closest	-9239
▁subscription	-9240
▁posit	-9241
electric	-9242
▁upgrade	-9243
ynt	-9244
▁tiny	-9245
▁Based	-9246
▁accom	-9247
▁flowers	-9248
▁managed	-9249
\\\\	-9250
▁Line	-9251
▁Asteroids	-9252
}^\\	-9253
▁affected	-9254
");\	-9255
▁lad	-9256
ockets	-9257
▁reusable	-9258
▁/^[	-9259
obvious	-9260
▁squared	-9261
LU	-9262
"),	-9263
Part	-9264
Incrementer	-9265
▁conj	-9266
▁clicking	-9267
veloper	-9268
▁datetime	-9269
▁interpol	-9270
▁capacitance	-9271
guard	-9272
modify	-9273
▁Wordle	-9274
structured	-9275
▁insurance	-9276
Met	-9277
▁Ant	-9278
▁arises	-9279
▁triplets	-9280
▁guesses	-9281
▁impacts	-9282
inclusive	-9283
Text	-9284
▁poll	-9285
▁centre	-9286
▁downloads	-9287
▁RGB	-9288
▁decentralized	-9289
▁Jack	-9290
ogen	-9291
▁streams	-9292
▁political	-9293
Big	-9294
nTo	-9295
▁LED	-9296
▁motiv	-9297
▁shouldn	-9298
hard	-9299
▁....	-9300
▁sorts	-9301
▁tracks	-9302
fra	-9303
chunks	-9304
▁Point	-9305
▁trail	-9306
▁vapor	-9307
▁former	-9308
▁earlier	-9309
]$$$	-9310
icious	-9311
▁Generator	-9312
▁rely	-9313
▁bucket	-9314
weeper	-9315
gramming	-9316
eles	-9317
▁accommod	-9318
▁Mines	-9319
tw	-9320
lined	-9321
consist	-9322
▁Strangler	-9323
|^	-9324
▁scat	-9325
▁deliver	-9326
▁automatic	-9327
bc	-9328
▁gene	-9329
▁deeper	-9330
▁harmonic	-9331
▁receiving	-9332
▁shipments	-9333
▁collaborative	-9334
▁London	-9335
▁National	-9336
▁nor	-9337
▁spo	-9338
third	-9339
▁$|\\	-9340
ashing	-9341
▁curved	-9342
▁accelerating	-9343
▁optical	-9344
▁gradients	-9345
kes	-9346
▁inh	-9347
▁prim	-9348
▁Puzzle	-9349
ometer	-9350
▁velocities	-9351
[(	-9352
():	-9353
▁vent	-9354
▁India	-9355
▁spot	-9356
▁assist	-9357
▁semant	-9358
▁neither	-9359
oft	-9360
ulating	-9361
▁basketball	-9362
▁relativistic	-9363
ada	-9364
▁axes	-9365
▁slowly	-9366
▁candidates	-9367
▁quantified	-9368
▁identifiers	-9369
▁lib	-9370
▁privacy	-9371
▁Minesweeper	-9372
▁elu	-9373
▁Flappy	-9374
▁famous	-9375
▁police	-9376
NI	-9377
[-	-9378
▁*)	-9379
▁encl	-9380
▁lane	-9381
▁copied	-9382
▁marketing	-9383
▁developing	-9384
▁hur	-9385
▁bracket	-9386
▁premises	-9387
▁west	-9388
▁descent	-9389
▁affecting	-9390
forcement	-9391
pattern	-9392
illiards	-9393
circle	-9394
lar	-9395
enario	-9396
▁cul	-9397
▁Cur	-9398
train	-9399
▁sale	-9400
vity	-9401
gency	-9402
orted	-9403
▁Invaders	-9404
▁Billiards	-9405
▁derivatives	-9406
▁orientation	-9407
PP	-9408
Cons	-9409
▁shorter	-9410
▁dependent	-9411
ission	-9412
▁Main	-9413
▁multiplying	-9414
▁synchronized	-9415
icient	-9416
▁tradition	-9417
▁emo	-9418
▁vice	-9419
▁playlists	-9420
All	-9421
orig	-9422
▁James	-9423
▁album	-9424
▁arise	-9425
▁vulnerabilities	-9426
▁np	-9427
glie	-9428
▁prepare	-9429
▁influences	-9430
Col	-9431
▁Rhythm	-9432
dictionary	-9433
▁noticed	-9434
▁shopping	-9435
allet	-9436
▁repet	-9437
▁pointer	-9438
▁Excel	-9439
▁restri	-9440
▁functionalities	-9441
").	-9442
gers	-9443
driven	-9444
▁diffusion	-9445
▁Ama	-9446
▁Indian	-9447
▁Racing	-9448
▁accident	-9449
▁remember	-9450
Id	-9451
▁Su	-9452
plan	-9453
▁Dav	-9454
▁themes	-9455
▁answered	-9456
▁clarify	-9457
▁accessing	-9458
▁repeatedly	-9459
stic	-9460
nconst	-9461
▁Graph	-9462
▁neighbors	-9463
▁lose	-9464
▁translate	-9465
ashes	-9466
▁cycl	-9467
▁Stacking	-9468
▁illustrating	-9469
;,	-9470
async	-9471
▁Unit	-9472
inator	-9473
▁observable	-9474
icon	-9475
Given	-9476
▁ships	-9477
anguage	-9478
▁compile	-9479
▁Abstract	-9480
pred	-9481
▁phenomena	-9482
▁China	-9483
▁vital	-9484
▁shaped	-9485
▁joint	-9486
▁metabol	-9487
▁stations	-9488
▁optimizer	-9489
variant	-9490
▁consequences	-9491
''	-9492
John	-9493
Your	-9494
cell	-9495
▁",	-9496
▁Air	-9497
accumulator	-9498
▁configures	-9499
_.	-9500
(...	-9501
▁eyes	-9502
▁reveals	-9503
▁Breakout	-9504
▁coupling	-9505
Che	-9506
equiv	-9507
▁withdraw	-9508
▁pause	-9509
tically	-9510
usiness	-9511
▁coupons	-9512
bre	-9513
▁although	-9514
▁algorithmic	-9515
SO	-9516
▁broader	-9517
▁layouts	-9518
▁internet	-9519
▁dim	-9520
▁slice	-9521
▁presented	-9522
Recursively	-9523
">	-9524
▁[](	-9525
▁identified	-9526
wind	-9527
tings	-9528
▁eight	-9529
▁papers	-9530
▁introducing	-9531
Down	-9532
▁Elect	-9533
▁fundamentally	-9534
▁enjoy	-9535
iqu	-9536
▁Az	-9537
▁Euler	-9538
▁swing	-9539
HT	-9540
gypt	-9541
▁Normal	-9542
anoid	-9543
▁towers	-9544
▁vehicles	-9545
▁initializing	-9546
▁physically	-9547
▁SVG	-9548
▁regularization	-9549
▁seek	-9550
▁effectiveness	-9551
▁subtle	-9552
▁registry	-9553
eth	-9554
▁divers	-9555
▁?\	-9556
typeof	-9557
▁obvious	-9558
▁accepted	-9559
▁mitigate	-9560
▁databases	-9561
▁volcan	-9562
▁ven	-9563
▁discipl	-9564
▁emitted	-9565
▁signs	-9566
▁overhead	-9567
▁`"	-9568
▁crow	-9569
▁consum	-9570
▁backpressure	-9571
ulk	-9572
▁aimed	-9573
▁Feynman	-9574
▁ambient	-9575
▁wherein	-9576
▁CacheManager	-9577
▁overflow	-9578
▁perfectly	-9579
ipe	-9580
▁eaten	-9581
▁bright	-9582
▁summer	-9583
▁exploration	-9584
pg	-9585
elt	-9586
▁seven	-9587
▁Spanish	-9588
▁stopping	-9589
▁Conditional	-9590
▁walking	-9591
▁Observer	-9592
▁evaluating	-9593
▁randomized	-9594
▁simplified	-9595
▁pizz	-9596
message	-9597
▁builder	-9598
▁optionally	-9599
{{	-9600
unt	-9601
▁girls	-9602
arc	-9603
▁cubic	-9604
▁Shooter	-9605
onical	-9606
aign	-9607
▁Real	-9608
▁breaks	-9609
▁insect	-9610
▁graphics	-9611
deter	-9612
▁chapter	-9613
▁intuition	-9614
▁compr	-9615
▁latter	-9616
andom	-9617
▁drink	-9618
▁tangent	-9619
▁unchanged	-9620
▁Description	-9621
NS	-9622
▁redund	-9623
▁stacking	-9624
▁resilience	-9625
▁Egypt	-9626
▁NLP	-9627
orrow	-9628
Divide	-9629
▁polymer	-9630
▁lie	-9631
EDIT	-9632
atur	-9633
▁emotional	-9634
ibilities	-9635
MA	-9636
▁Orac	-9637
▁selling	-9638
nergy	-9639
designed	-9640
▁neur	-9641
▁strat	-9642
▁Broglie	-9643
▁expanding	-9644
/[	-9645
▁""\	-9646
▁removal	-9647
▁chocolate	-9648
▁Matching	-9649
▁annotations	-9650
▁thermodynamics	-9651
▁flaw	-9652
▁verbose	-9653
▁verifying	-9654
}$$$	-9655
▁mol	-9656
▁SD	-9657
local	-9658
▁Hilbert	-9659
title	-9660
▁boys	-9661
▁Instruction	-9662
)){\	-9663
▁pig	-9664
nEdit	-9665
▁snap	-9666
▁reflected	-9667
uten	-9668
onomy	-9669
▁mesh	-9670
ograms	-9671
▁pivot	-9672
▁reflecting	-9673
▁potentially	-9674
;/	-9675
▁sq	-9676
ened	-9677
▁})\	-9678
▁sites	-9679
▁credit	-9680
▁vertically	-9681
agram	-9682
▁Bash	-9683
▁Tasks	-9684
▁attached	-9685
▁consumers	-9686
▁couple	-9687
▁TV	-9688
^{-\\	-9689
▁condens	-9690
▁brackets	-9691
▁ghost	-9692
▁Arkanoid	-9693
▁absorbed	-9694
▁certific	-9695
▁yielding	-9696
▁overlapping	-9697
▁interconnected	-9698
▁ash	-9699
▁Amazon	-9700
▁preferred	-9701
_;\	-9702
▁poor	-9703
▁intent	-9704
▁pyram	-9705
▁slower	-9706
▁choosing	-9707
link	-9708
togg	-9709
total	-9710
register	-9711
▁entangled	-9712
▁gamma	-9713
▁raises	-9714
▁Theory	-9715
▁gender	-9716
odd	-9717
poss	-9718
▁zip	-9719
▁Pong	-9720
▁sink	-9721
▁voice	-9722
▁reliable	-9723
loop	-9724
placer	-9725
recursiveProcess	-9726
▁eggs	-9727
achine	-9728
▁minor	-9729
▁safely	-9730
▁undo	-9731
▁charts	-9732
▁roof	-9733
▁zoom	-9734
▁intended	-9735
▁subsc	-9736
▁disapp	-9737
▁dissol	-9738
▁drives	-9739
▁conform	-9740
IR	-9741
ued	-9742
▁vill	-9743
Altern	-9744
▁bubble	-9745
friendly	-9746
typ	-9747
group	-9748
▁dens	-9749
▁sensitive	-9750
▁flour	-9751
▁comprom	-9752
▁wavefunction	-9753
ja	-9754
except	-9755
▁modifies	-9756
▁cognitive	-9757
▁invent	-9758
▁mistake	-9759
▁temporal	-9760
PA	-9761
rin	-9762
nthe	-9763
▁Carnot	-9764
----------------	-9765
^{\	-9766
error	-9767
▁south	-9768
gg	-9769
▁LSTM	-9770
chers	-9771
Is	-9772
▁Cap	-9773
▁brick	-9774
▁elaborate	-9775
▁treatment	-9776
▁organizations	-9777
▁imply	-9778
▁entertain	-9779
elihood	-9780
nQu	-9781
▁Pack	-9782
oping	-9783
▁assignments	-9784
▁summar	-9785
▁British	-9786
▁growing	-9787
▁intrins	-9788
▁administ	-9789
Mole	-9790
▁alien	-9791
▁releasing	-9792
replacement	-9793
▁embeddings	-9794
▁routine	-9795
capitalize	-9796
▁scattered	-9797
▁dice	-9798
▁relent	-9799
▁Builder	-9800
▁designs	-9801
▁bookmarks	-9802
'$	-9803
]$/.	-9804
▁zones	-9805
▁Solver	-9806
▁Scenario	-9807
(['	-9808
▁developer	-9809
▁assessment	-9810
▁progressive	-9811
▁substantial	-9812
▁fly	-9813
▁encounter	-9814
▁"");\	-9815
Invalid	-9816
▁confir	-9817
▁computations	-9818
▁Pat	-9819
▁pod	-9820
▁enzy	-9821
▁sparse	-9822
▁securely	-9823
▁philosoph	-9824
chr	-9825
▁emails	-9826
▁concert	-9827
▁compares	-9828
▁nth	-9829
ingly	-9830
▁dissip	-9831
▁relentless	-9832
▁Black	-9833
▁Equ	-9834
▁reply	-9835
▁commut	-9836
dry	-9837
▁leap	-9838
▁applicable	-9839
Def	-9840
▁ozone	-9841
isons	-9842
▁Index	-9843
▁conversation	-9844
▁(()	-9845
shiftChar	-9846
▁descriptive	-9847
label	-9848
▁vess	-9849
▁improved	-9850
▁optimizing	-9851
▁UTF	-9852
▁brid	-9853
▁haven	-9854
▁preserve	-9855
▁susp	-9856
▁decides	-9857
help	-9858
ama	-9859
iel	-9860
▁hyperparameters	-9861
▁sells	-9862
▁evenly	-9863
▁gameplay	-9864
athe	-9865
▁Field	-9866
NextChar	-9867
▁cellular	-9868
▁sin	-9869
▁explored	-9870
Alchemy	-9871
▁rocket	-9872
▁routing	-9873
▁expanded	-9874
▁connectivity	-9875
sk	-9876
▁notice	-9877
▁reported	-9878
▁Di	-9879
▁Dr	-9880
▁spanning	-9881
▁webhooks	-9882
▁Requirements	-9883
eq	-9884
aped	-9885
▁ages	-9886
▁contexts	-9887
▁defeat	-9888
▁European	-9889
▁suggests	-9890
▁parties	-9891
parts	-9892
▁Whack	-9893
▁conven	-9894
▁wing	-9895
essage	-9896
▁society	-9897
▁variance	-9898
▁clustering	-9899
▁preferences	-9900
▁Mo	-9901
▁semantics	-9902
▁nan	-9903
uffix	-9904
aughter	-9905
initialize	-9906
ads	-9907
▁variation	-9908
▁necessitating	-9909
Other	-9910
▁listed	-9911
▁hashing	-9912
▁calculator	-9913
PM	-9914
[[	-9915
▁du	-9916
('').	-9917
▁cats	-9918
▁dragon	-9919
▁island	-9920
▁accelerate	-9921
nes	-9922
▁Mic	-9923
▁|\\	-9924
exist	-9925
▁Monday	-9926
▁Oracle	-9927
▁conversions	-9928
wa	-9929
yes	-9930
▁Oh	-9931
▁GPIO	-9932
▁gradually	-9933
#,	-9934
ented	-9935
▁huge	-9936
porate	-9937
▁interview	-9938
▁identifies	-9939
!!	-9940
nAny	-9941
▁brought	-9942
▁characterized	-9943
beat	-9944
root	-9945
▁induced	-9946
unit	-9947
ustr	-9948
Gener	-9949
▁Swap	-9950
▁textures	-9951
▁Mechanics	-9952
▁highlighting	-9953
Yes	-9954
sear	-9955
▁operate	-9956
▁Euclidean	-9957
▁&#	-9958
▁dish	-9959
▁easier	-9960
mount	-9961
▁tube	-9962
++.	-9963
▁tight	-9964
▁soccer	-9965
cycle	-9966
▁outward	-9967
]$,	-9968
osity	-9969
ignoring	-9970
triangle	-9971
▁II	-9972
▁Aud	-9973
▁phrase	-9974
▁ATP	-9975
umble	-9976
▁Only	-9977
▁freezing	-9978
▁turb	-9979
possibly	-9980
▁disable	-9981
▁pressures	-9982
yy	-9983
▁survey	-9984
▁traits	-9985
▁docstring	-9986
Co	-9987
van	-9988
ogether	-9989
▁strand	-9990
currentChar	-9991
▁foundational	-9992
ws	-9993
acies	-9994
erals	-9995
nEDIT	-9996
▁perce	-9997
▁poses	-9998
▁bounds	-9999
▁precip	-10000
▁ShiftChars	-10001
▁overcome	-10002
▁downloader	-10003
▁StringReverser	-10004
▁strugg	-10005
▁deduction	-10006
▁laid	-10007
▁discard	-10008
rites	-10009
▁isolated	-10010
▁branching	-10011
▁decreasing	-10012
▁determinant	-10013
▁progressively	-10014
GG	-10015
▁bases	-10016
▁Science	-10017
▁engineers	-10018
\]	-10019
acade	-10020
▁knowing	-10021
▁integrates	-10022
▁downloading	-10023
▁die	-10024
▁ser	-10025
▁comma	-10026
▁placeholder	-10027
*}\	-10028
▁cha	-10029
▁Should	-10030
▁authors	-10031
▁technological	-10032
etch	-10033
▁trial	-10034
▁upgra	-10035
services	-10036
▁fighting	-10037
▁possibly	-10038
▁Efficient	-10039
▁immediate	-10040
uts	-10041
chen	-10042
Right	-10043
▁mast	-10044
choice	-10045
▁songs	-10046
▁inconsist	-10047
""	-10048
▁fle	-10049
▁cake	-10050
Implemented	-10051
▁;	-10052
▁fired	-10053
▁interleaved	-10054
▁ProcessingState	-10055
▁sensors	-10056
▁AVL	-10057
▁combines	-10058
Tr	-10059
mical	-10060
▁echo	-10061
▁ju	-10062
common	-10063
▁exposure	-10064
▁GR	-10065
▁File	-10066
urable	-10067
acks	-10068
▁processedChar	-10069
As	-10070
▁orchestr	-10071
score	-10072
▁summ	-10073
ension	-10074
▁depos	-10075
▁majority	-10076
▁clipboard	-10077
apple	-10078
esian	-10079
dynamic	-10080
aby	-10081
fast	-10082
nfrom	-10083
orphic	-10084
▁chains	-10085
▁proteins	-10086
En	-10087
^^	-10088
elcome	-10089
▁pocket	-10090
▁Hand	-10091
nection	-10092
▁unless	-10093
▁oscillate	-10094
▁fee	-10095
▁America	-10096
▁Sort	-10097
orded	-10098
▁startup	-10099
▁mort	-10100
▁comparisons	-10101
▁da	-10102
▁rubber	-10103
▁modifying	-10104
FC	-10105
▁swim	-10106
Function	-10107
▁lecture	-10108
▁Identify	-10109
▁analytics	-10110
▁instrument	-10111
Reader	-10112
expected	-10113
▁carried	-10114
▁endless	-10115
▁wishlists	-10116
wikipedia	-10117
EX	-10118
▁`'	-10119
nFrom	-10120
▁Water	-10121
bmatrix	-10122
▁refere	-10123
▁refine	-10124
▁reward	-10125
▁filling	-10126
▁born	-10127
▁introduction	-10128
▁pend	-10129
▁coinc	-10130
▁courses	-10131
▁extensive	-10132
▁listening	-10133
▁hotel	-10134
texttt	-10135
▁oct	-10136
▁thre	-10137
two	-10138
ImplementedError	-10139
▁syll	-10140
▁Higgs	-10141
nstruct	-10142
▁bottle	-10143
▁shadow	-10144
▁motions	-10145
aba	-10146
ien	-10147
▁CD	-10148
▁proxy	-10149
▁fed	-10150
▁rev	-10151
▁mismatched	-10152
▁investment	-10153
context	-10154
▁volumes	-10155
▁Dep	-10156
▁batt	-10157
▁fring	-10158
▁painted	-10159
▁Cart	-10160
▁steering	-10161
▁opponents	-10162
Client	-10163
▁opened	-10164
▁calendar	-10165
▁validity	-10166
▁subsequences	-10167
zen	-10168
▁movies	-10169
▁hazards	-10170
▁consideration	-10171
▁dishes	-10172
▁bow	-10173
▁hydro	-10174
▁border	-10175
▁sprite	-10176
▁san	-10177
▁approximate	-10178
abase	-10179
pache	-10180
▁ProcessorState	-10181
Pa	-10182
real	-10183
▁Hard	-10184
matic	-10185
▁apple	-10186
▁epochs	-10187
▁decoding	-10188
▁advent	-10189
▁extreme	-10190
▁texture	-10191
▁SQLAlchemy	-10192
$;	-10193
▁seeing	-10194
▁copies	-10195
asha	-10196
▁refined	-10197
▁SHA	-10198
▁eluc	-10199
future	-10200
▁weigh	-10201
▁protection	-10202
▁YouT	-10203
life	-10204
▁referred	-10205
ORM	-10206
ban	-10207
anim	-10208
Object	-10209
ighter	-10210
▁creature	-10211
ca	-10212
▁[]))\	-10213
▁clusters	-10214
▁contributions	-10215
RO	-10216
pare	-10217
▁deserial	-10218
▁documented	-10219
asm	-10220
▁marbles	-10221
▁unfolds	-10222
▁profiles	-10223
▁capitalize	-10224
Rule	-10225
alog	-10226
nwhich	-10227
rfloor	-10228
▁fruits	-10229
memoShift	-10230
▁ordinary	-10231
LT	-10232
phys	-10233
▁Will	-10234
▁proc	-10235
▁Revolution	-10236
▁advantages	-10237
lfloor	-10238
▁recall	-10239
▁campaign	-10240
▁messaging	-10241
ker	-10242
▁modification	-10243
ppers	-10244
▁purely	-10245
▁detector	-10246
▁imaginary	-10247
▁communicate	-10248
uary	-10249
▁Pers	-10250
▁vibr	-10251
Option	-10252
▁moments	-10253
▁shaping	-10254
▁Chain	-10255
▁sitting	-10256
=\	-10257
▁url	-10258
▁facilitate	-10259
▁funds	-10260
▁quotient	-10261
hal	-10262
▁rid	-10263
▁appearance	-10264
▁incremented	-10265
▁bags	-10266
▁reasons	-10267
flu	-10268
pus	-10269
▁reflects	-10270
▁achieving	-10271
▁parameterized	-10272
Sum	-10273
▁dt	-10274
▁args	-10275
▁buoy	-10276
▁anomal	-10277
▁football	-10278
▁currentChar	-10279
rab	-10280
source	-10281
▁tested	-10282
rown	-10283
▁Many	-10284
▁heating	-10285
▁holding	-10286
arm	-10287
Tree	-10288
agon	-10289
▁Det	-10290
▁aren	-10291
▁alumin	-10292
▁biology	-10293
.$$\	-10294
▁videos	-10295
▁filenames	-10296
▁braking	-10297
▁careful	-10298
▁somewhere	-10299
▁persistent	-10300
▁competition	-10301
"):	-10302
she	-10303
nSince	-10304
Dat	-10305
factor	-10306
playing	-10307
irectional	-10308
▁checkpoint	-10309
▁finished	-10310
▁diversity	-10311
▁ToggleCase	-10312
▁subprocess	-10313
hr	-10314
iber	-10315
limits	-10316
▁served	-10317
▁modifications	-10318
▁excessive	-10319
ham	-10320
▁searches	-10321
▁Day	-10322
ribed	-10323
▁travers	-10324
▁entering	-10325
▁focusing	-10326
▁inj	-10327
▁hing	-10328
then	-10329
▁comfort	-10330
▁membrane	-10331
▁buys	-10332
▁Present	-10333
▁consumer	-10334
▁Em	-10335
Meta	-10336
▁convection	-10337
▁Implementing	-10338
ott	-10339
▁concatenate	-10340
▁topological	-10341
ena	-10342
query	-10343
▁Schro	-10344
▁unable	-10345
▁regener	-10346
validation	-10347
▁fat	-10348
Inter	-10349
▁lights	-10350
▁provision	-10351
err	-10352
▁hyp	-10353
▁Bridge	-10354
▁replic	-10355
complete	-10356
▁General	-10357
▁Instead	-10358
▁milk	-10359
▁recorded	-10360
▁empirical	-10361
HE	-10362
WW	-10363
isLower	-10364
▁downward	-10365
IG	-10366
US	-10367
▁resear	-10368
▁computers	-10369
▁delays	-10370
coord	-10371
piece	-10372
▁texts	-10373
▁conduction	-10374
▁productivity	-10375
▁Ka	-10376
▁requested	-10377
▁shiftChars	-10378
▁likelihood	-10379
▁simulations	-10380
▁precipitation	-10381
orders	-10382
▁passwords	-10383
▁speak	-10384
▁damp	-10385
▁kept	-10386
▁querying	-10387
▁loses	-10388
balance	-10389
▁compounds	-10390
etya	-10391
▁Austr	-10392
▁serverless	-10393
}"	-10394
▁Azure	-10395
▁injection	-10396
rad	-10397
▁rope	-10398
▁delta	-10399
▁schools	-10400
▁birthday	-10401
▁diseases	-10402
kit	-10403
▁Arch	-10404
▁looked	-10405
▁battles	-10406
▁-->	-10407
icine	-10408
▁rare	-10409
▁threading	-10410
stra	-10411
alian	-10412
random	-10413
Segment	-10414
templ	-10415
isUpper	-10416
▁aircraft	-10417
;\\	-10418
heit	-10419
▁dipole	-10420
▁Physical	-10421
▁permission	-10422
operatorname	-10423
^+	-10424
▁pools	-10425
▁aiming	-10426
▁survival	-10427
nWh	-10428
▁QM	-10429
▁hints	-10430
▁grades	-10431
▁occasional	-10432
ahren	-10433
▁tiss	-10434
▁Linux	-10435
▁modifier	-10436
▁sunlight	-10437
▁Alpha	-10438
▁grammar	-10439
▁operates	-10440
▁moon	-10441
author	-10442
▁supplies	-10443
▁complexities	-10444
opher	-10445
▁pros	-10446
▁Context	-10447
▁citiz	-10448
▁passages	-10449
▁neighborhood	-10450
▁inde	-10451
▁reinforcement	-10452
?)	-10453
ATE	-10454
▁West	-10455
▁immut	-10456
▁metals	-10457
For	-10458
▁association	-10459
Sp	-10460
▁Product	-10461
slit	-10462
▁copying	-10463
,...	-10464
ahrenheit	-10465
▁tangible	-10466
▁inserting	-10467
▁subarrays	-10468
▁alphanumeric	-10469
▁sequentially	-10470
![\	-10471
peat	-10472
▁(((	-10473
▁\((	-10474
Shell	-10475
icial	-10476
▁semi	-10477
Specific	-10478
▁selects	-10479
▁HP	-10480
Path	-10481
▁pole	-10482
necess	-10483
▁versa	-10484
▁Mathemat	-10485
▁pendulum	-10486
▁optimally	-10487
fortunately	-10488
odge	-10489
▁earn	-10490
▁lasers	-10491
▁Ra	-10492
display	-10493
▁finance	-10494
▁AM	-10495
▁listen	-10496
▁bounces	-10497
apes	-10498
})\\	-10499
Encoding	-10500
▁gallons	-10501
reet	-10502
▁Twitter	-10503
▁readability	-10504
▁blocking	-10505
▁guarantees	-10506
uter	-10507
▁$\{	-10508
offset	-10509
▁penalties	-10510
oned	-10511
▁galaxy	-10512
▁barrier	-10513
▁treated	-10514
ourse	-10515
▁hair	-10516
▁recover	-10517
▁recovery	-10518
▁Decorator	-10519
png	-10520
intersection	-10521
▁concurrently	-10522
▁:\	-10523
▁emoji	-10524
▁cooling	-10525
▁warnings	-10526
}$?	-10527
ashed	-10528
▁aest	-10529
▁microservices	-10530
mn	-10531
uits	-10532
▁Trace	-10533
▁expose	-10534
▁ladder	-10535
▁equivalence	-10536
▁gaps	-10537
nament	-10538
▁ration	-10539
iley	-10540
original	-10541
▁Display	-10542
▁fulfill	-10543
urs	-10544
▁nom	-10545
iston	-10546
▁mamm	-10547
▁trav	-10548
▁persisted	-10549
forces	-10550
▁shock	-10551
quarter	-10552
▁cancer	-10553
▁minerals	-10554
▁specifies	-10555
brid	-10556
▁Mary	-10557
▁sugar	-10558
▁cater	-10559
holders	-10560
readable	-10561
▁maximal	-10562
▁discover	-10563
▁scraping	-10564
ecycle	-10565
▁Petya	-10566
▁birds	-10567
▁Replace	-10568
▁subdirect	-10569
▁patch	-10570
▁wires	-10571
rules	-10572
agonal	-10573
▁England	-10574
▁dominant	-10575
open	-10576
altern	-10577
▁genes	-10578
cor	-10579
▁annou	-10580
▁intelligence	-10581
lam	-10582
▁"/	-10583
irected	-10584
interleave	-10585
▁intrinsic	-10586
▁soldi	-10587
▁targets	-10588
ogene	-10589
impl	-10590
▁stem	-10591
▁Merge	-10592
▁Its	-10593
shiftChars	-10594
▁underpins	-10595
}'	-10596
▁lingu	-10597
▁Fisher	-10598
aclass	-10599
gi	-10600
wall	-10601
▁chef	-10602
▁David	-10603
▁reader	-10604
▁independently	-10605
same	-10606
▁dealing	-10607
osph	-10608
▁Insert	-10609
▁humidity	-10610
▁participant	-10611
)$\	-10612
Age	-10613
▁rises	-10614
▁scored	-10615
▁obviously	-10616
▁contributing	-10617
nm	-10618
▁Pred	-10619
▁floats	-10620
ros	-10621
▁\[\	-10622
uesday	-10623
▁shifting	-10624
▁batches	-10625
▁theater	-10626
▁replication	-10627
erter	-10628
front	-10629
▁harm	-10630
elines	-10631
▁cubes	-10632
plot	-10633
▁craw	-10634
▁visits	-10635
▁canonical	-10636
ikit	-10637
Odd	-10638
▁'-	-10639
▁Mike	-10640
▁centered	-10641
▁Their	-10642
▁alphabetical	-10643
▁sport	-10644
dq	-10645
onym	-10646
▁RSA	-10647
▁ast	-10648
phase	-10649
▁Adam	-10650
sections	-10651
KE	-10652
▁gent	-10653
▁Solidity	-10654
▁slices	-10655
▁varies	-10656
verter	-10657
▁floors	-10658
▁mission	-10659
▁sediment	-10660
▁adjacency	-10661
▁separately	-10662
cers	-10663
berry	-10664
Chunks	-10665
Processed	-10666
*)	-10667
▁Bell	-10668
popleft	-10669
▁Pi	-10670
seen	-10671
▁multip	-10672
including	-10673
▁polarization	-10674
▁seats	-10675
▁refers	-10676
▁flowing	-10677
▁Advanced	-10678
▁collects	-10679
▁Gold	-10680
▁Smith	-10681
ificial	-10682
▁fer	-10683
";	-10684
▁kids	-10685
!\	-10686
bage	-10687
▁Pres	-10688
▁enforce	-10689
▁entertainment	-10690
▁Tim	-10691
results	-10692
▁relies	-10693
▁national	-10694
Int	-10695
}}\	-10696
▁'\\	-10697
▁scaled	-10698
▁lifecycle	-10699
▁submission	-10700
▁CaseTransformer	-10701
ali	-10702
bug	-10703
multi	-10704
▁beneath	-10705
▁pushing	-10706
▁transmit	-10707
ille	-10708
cipher	-10709
▁locally	-10710
▁election	-10711
▁SM	-10712
▁Non	-10713
▁schol	-10714
▁consult	-10715
▁viewing	-10716
▁paradigm	-10717
▁manipulate	-10718
"{	-10719
▁meant	-10720
▁offline	-10721
kgÂ	-10722
KB	-10723
▁Face	-10724
▁clouds	-10725
▁governance	-10726
▁indeed	-10727
rees	-10728
duled	-10729
▁resizing	-10730
IC	-10731
▁Out	-10732
email	-10733
▁logarithmic	-10734
▁milit	-10735
▁shr	-10736
ograp	-10737
tasks	-10738
▁punch	-10739
New	-10740
pdf	-10741
ains	-10742
iddle	-10743
▁Port	-10744
▁keeps	-10745
▁pyramid	-10746
▁strange	-10747
▁magnification	-10748
IM	-10749
hot	-10750
▁chick	-10751
▁jumps	-10752
▁solvable	-10753
▁differentiation	-10754
▁mines	-10755
▁rising	-10756
▁electrostatic	-10757
ocab	-10758
▁arrival	-10759
▁geographic	-10760
▁manifest	-10761
▁Fer	-10762
▁penc	-10763
▁Employ	-10764
▁feeling	-10765
olet	-10766
uman	-10767
often	-10768
Hz	-10769
What	-10770
ayer	-10771
mg	-10772
Limit	-10773
▁advancements	-10774
▁Autom	-10775
▁renew	-10776
▁Russian	-10777
▁whenever	-10778
palindrome	-10779
▁ren	-10780
▁wet	-10781
▁Util	-10782
inates	-10783
▁attend	-10784
▁distant	-10785
(`	-10786
▁facing	-10787
▁collide	-10788
▁contracts	-10789
▁fostering	-10790
▁histogram	-10791
▁circulation	-10792
▁differently	-10793
td	-10794
▁attempting	-10795
▁conclusions	-10796
▁PNG	-10797
▁clockwise	-10798
ya	-10799
xtures	-10800
▁underpin	-10801
▁occurring	-10802
patch	-10803
pread	-10804
▁wides	-10805
▁losses	-10806
▁systematically	-10807
IF	-10808
▁categorical	-10809
▁agricultural	-10810
rapy	-10811
generator	-10812
▁quantitative	-10813
ERT	-10814
radi	-10815
▁`.	-10816
▁bug	-10817
files	-10818
▁Markdown	-10819
▁uniformly	-10820
.)\	-10821
▁defense	-10822
▁deleted	-10823
▁ST	-10824
▁Pac	-10825
bytes	-10826
ember	-10827
▁cooler	-10828
▁harmony	-10829
ara	-10830
nih	-10831
▁acknow	-10832
▁aluminum	-10833
▁projection	-10834
edu	-10835
▁ecol	-10836
▁moral	-10837
)?\	-10838
::<	-10839
▁laun	-10840
ategor	-10841
▁loves	-10842
▁absence	-10843
▁partitions	-10844
▁Ok	-10845
▁Planck	-10846
kle	-10847
▁kill	-10848
▁Altern	-10849
▁prepared	-10850
▁widespread	-10851
▁toy	-10852
rimin	-10853
▁Circ	-10854
▁tact	-10855
▁Fahrenheit	-10856
▁symmetries	-10857
ocode	-10858
▁Incor	-10859
▁commerc	-10860
▁generators	-10861
underline	-10862
▁procedures	-10863
amond	-10864
block	-10865
▁flower	-10866
▁unitary	-10867
▁happening	-10868
▁fluctuations	-10869
▁methodologies	-10870
exact	-10871
My	-10872
hi	-10873
▁emergency	-10874
▁Mor	-10875
▁nuclei	-10876
▁Unicode	-10877
▁manifold	-10878
▁inclusion	-10879
▁Vol	-10880
▁])\	-10881
edding	-10882
▁microb	-10883
▁snapsh	-10884
▁rational	-10885
▁purchased	-10886
▁healthcare	-10887
▁`-	-10888
▁Pass	-10889
▁kinds	-10890
▁distinguish	-10891
▁conjug	-10892
▁Package	-10893
▁utilized	-10894
▁AST	-10895
▁sodium	-10896
▁classifiers	-10897
Emp	-10898
▁mutex	-10899
▁neglig	-10900
▁sprites	-10901
izationCache	-10902
▁authorization	-10903
▁xi	-10904
}.$$\	-10905
▁cloth	-10906
▁shelf	-10907
▁kitchen	-10908
▁inserted	-10909
▁recognize	-10910
aga	-10911
▁battle	-10912
▁signed	-10913
▁Dat	-10914
▁infer	-10915
▁fringe	-10916
▁belongs	-10917
▁upgrades	-10918
▁ru	-10919
▁brown	-10920
▁folds	-10921
▁achieves	-10922
▁PowerShell	-10923
gru	-10924
▁Dan	-10925
▁swinging	-10926
▁undirected	-10927
enth	-10928
prop	-10929
▁mana	-10930
▁earthqu	-10931
▁substitution	-10932
band	-10933
owns	-10934
prev	-10935
▁opin	-10936
necessary	-10937
▁engagement	-10938
▁dq	-10939
herence	-10940
▁exports	-10941
OD	-10942
mean	-10943
mode	-10944
▁Business	-10945
▁strengths	-10946
RT	-10947
▁suit	-10948
▁faced	-10949
▁adjusting	-10950
▁Pick	-10951
ula	-10952
aked	-10953
▁magaz	-10954
OC	-10955
▁WebGL	-10956
▁college	-10957
▁counted	-10958
▁adjusted	-10959
▁translated	-10960
lin	-10961
pto	-10962
▁sex	-10963
▁winter	-10964
▁pictures	-10965
▁complicated	-10966
▁finalResult	-10967
▁transferred	-10968
)}\\	-10969
...\	-10970
▁See	-10971
▁Keras	-10972
validated	-10973
Add	-10974
▁desk	-10975
▁January	-10976
▁divergence	-10977
▁institution	-10978
▁International	-10979
zer	-10980
▁wear	-10981
▁improving	-10982
GI	-10983
'),\	-10984
estern	-10985
▁crust	-10986
▁discounts	-10987
Count	-10988
agers	-10989
▁dual	-10990
▁ride	-10991
▁Tuesday	-10992
&)>	-10993
▁evident	-10994
▁fragment	-10995
▁spawning	-10996
▁neutralize	-10997
▁AD	-10998
▁ap	-10999
▁dimin	-11000
consonants	-11001
},\	-11002
formed	-11003
inserter	-11004
▁formally	-11005
▁Image	-11006
eration	-11007
▁tallest	-11008
▁forecast	-11009
▁pointing	-11010
▁convention	-11011
▁neighboring	-11012
()).	-11013
ession	-11014
▁watching	-11015
▁signatures	-11016
leg	-11017
aint	-11018
nuse	-11019
▁Asia	-11020
▁trailing	-11021
▁unittest	-11022
▁configuring	-11023
ABCD	-11024
▁customizable	-11025
▁Fly	-11026
▁Audio	-11027
▁calculus	-11028
attack	-11029
▁Start	-11030
▁spends	-11031
▁completing	-11032
▁[(	-11033
▁meta	-11034
medium	-11035
▁Proper	-11036
▁agents	-11037
▁thickness	-11038
UID	-11039
}\)	-11040
icates	-11041
▁IR	-11042
▁sole	-11043
written	-11044
▁bigger	-11045
EE	-11046
▁iOS	-11047
env	-11048
▁pooling	-11049
▁symbolic	-11050
▁subclasses	-11051
▁strip	-11052
ourcing	-11053
▁sister	-11054
▁misunder	-11055
▁weathering	-11056
▁Sund	-11057
▁Mount	-11058
▁streak	-11059
▁affects	-11060
▁cooking	-11061
nCons	-11062
▁June	-11063
▁Whether	-11064
▁carries	-11065
▁migr	-11066
▁radial	-11067
▁mÂ	-11068
isor	-11069
▁cue	-11070
▁cleaned	-11071
▁dictates	-11072
Qt	-11073
▁irre	-11074
▁prism	-11075
▁convey	-11076
▁illumin	-11077
▁travelling	-11078
arian	-11079
▁Upon	-11080
▁Theore	-11081
▁thanks	-11082
▁ports	-11083
▁analyzes	-11084
▁multiples	-11085
▁relational	-11086
()]\	-11087
irts	-11088
kinter	-11089
▁Network	-11090
▁transpose	-11091
'(	-11092
warz	-11093
▁var	-11094
▁wiki	-11095
icy	-11096
iator	-11097
quant	-11098
▁Scal	-11099
ading	-11100
▁guest	-11101
▁imperfect	-11102
isen	-11103
▁fav	-11104
gested	-11105
▁Logger	-11106
▁nextChar	-11107
▁recommended	-11108
abel	-11109
ddot	-11110
plane	-11111
appa	-11112
thereum	-11113
▁rearrange	-11114
mv	-11115
enty	-11116
▁mph	-11117
rian	-11118
▁Aug	-11119
▁FFT	-11120
▁vir	-11121
▁dispers	-11122
▁accounting	-11123
regular	-11124
▁Lambda	-11125
▁caught	-11126
▁painting	-11127
▁prevents	-11128
]))	-11129
▁dra	-11130
inity	-11131
uitively	-11132
▁scheduled	-11133
▁bottles	-11134
▁massless	-11135
▁Repository	-11136
▁adjustments	-11137
processString	-11138
orge	-11139
▁economy	-11140
▁regenerate	-11141
vised	-11142
▁Tech	-11143
▁habit	-11144
▁captured	-11145
▁rounding	-11146
▁rejecting	-11147
performance	-11148
▁CharShifter	-11149
▁casc	-11150
▁dropout	-11151
▁ignoring	-11152
(''.	-11153
ears	-11154
ocabul	-11155
▁traces	-11156
contains	-11157
▁passengers	-11158
"],	-11159
▁heur	-11160
▁earned	-11161
▁daughter	-11162
▁satisfaction	-11163
contin	-11164
segments	-11165
▁underscore	-11166
▁grass	-11167
▁Custom	-11168
▁coherent	-11169
▁`/	-11170
▁Before	-11171
▁Makefile	-11172
__.	-11173
manager	-11174
▁danger	-11175
▁occurred	-11176
▁unexpected	-11177
▁Sy	-11178
heap	-11179
orry	-11180
▁Integ	-11181
▁swaps	-11182
▁breadth	-11183
▁infinitely	-11184
▁accelerated	-11185
▁interpolation	-11186
▁)\	-11187
arded	-11188
speed	-11189
▁East	-11190
autiful	-11191
nQuestion	-11192
cy	-11193
lug	-11194
▁Av	-11195
▁electronic	-11196
▁Don	-11197
▁balances	-11198
▁readings	-11199
▁cylind	-11200
▁parity	-11201
▁infinit	-11202
▁provider	-11203
▁BC	-11204
▁distin	-11205
▁fermion	-11206
fers	-11207
▁fiber	-11208
▁Robert	-11209
▁balloon	-11210
▁Ethereum	-11211
▁basically	-11212
▁oscillator	-11213
▁Frid	-11214
▁dress	-11215
▁locate	-11216
▁versus	-11217
▁crystal	-11218
▁millenn	-11219
▁---	-11220
▁tries	-11221
▁wraps	-11222
▁dropped	-11223
▁adaptive	-11224
▁experienced	-11225
▁crops	-11226
▁wider	-11227
riggers	-11228
▁Circuit	-11229
▁detecting	-11230
▁recognized	-11231
▁certificate	-11232
)),	-11233
nth	-11234
▁heading	-11235
▁heavier	-11236
[..	-11237
obj	-11238
▁Proxy	-11239
Perfect	-11240
▁medicine	-11241
▁successive	-11242
▁preparation	-11243
=-\\	-11244
▁hall	-11245
▁studied	-11246
▁accessed	-11247
BFS	-11248
QRS	-11249
iture	-11250
▁Africa	-11251
▁proving	-11252
▁suspect	-11253
▁Unfortunately	-11254
rr	-11255
▁gym	-11256
isation	-11257
▁consonants	-11258
▁robustness	-11259
▁probes	-11260
▁Encoding	-11261
▁Initialize	-11262
▁reconstruct	-11263
lat	-11264
▁wit	-11265
DA	-11266
Fn	-11267
ado	-11268
▁pizza	-11269
▁piston	-11270
▁exerted	-11271
▁methodology	-11272
Sigma	-11273
iments	-11274
seconds	-11275
▁happened	-11276
▁utilization	-11277
▁Bl	-11278
Tech	-11279
▁strongly	-11280
decreasing	-11281
▁Haw	-11282
▁bund	-11283
▁Devise	-11284
▁employing	-11285
▁promoting	-11286
▁seamlessly	-11287
▁congru	-11288
▁ensemble	-11289
▁variants	-11290
ael	-11291
▁scans	-11292
▁Mich	-11293
▁garbage	-11294
▁meticulous	-11295
AME	-11296
alia	-11297
Yates	-11298
▁divs	-11299
▁crane	-11300
▁dough	-11301
▁commas	-11302
;#	-11303
]{	-11304
▁stk	-11305
component	-11306
▁hundreds	-11307
▁relaxing	-11308
▁Rew	-11309
▁django	-11310
▁exiting	-11311
▁promote	-11312
wrong	-11313
▁seeds	-11314
▁scikit	-11315
-\	-11316
▁truck	-11317
isecond	-11318
▁handled	-11319
▁minimizes	-11320
▁gest	-11321
frequency	-11322
▁military	-11323
▁Emb	-11324
▁Sec	-11325
paper	-11326
ertools	-11327
edy	-11328
▁renormal	-11329
oltz	-11330
park	-11331
▁suc	-11332
▁buying	-11333
▁female	-11334
▁automates	-11335
▁testcases	-11336
▁accommodate	-11337
▁compilation	-11338
px	-11339
mento	-11340
▁grasp	-11341
▁subjects	-11342
▁supercon	-11343
oir	-11344
acle	-11345
▁isot	-11346
▁sticks	-11347
iated	-11348
nConsider	-11349
▁volcanic	-11350
▁tournament	-11351
▁Fn	-11352
ashi	-11353
element	-11354
▁enclosed	-11355
▁FilterAlpha	-11356
▁straightforward	-11357
asma	-11358
▁Group	-11359
▁humanity	-11360
▁wife	-11361
▁fluids	-11362
TestCase	-11363
▁Pacific	-11364
▁dilation	-11365
▁millennia	-11366
▁perturbation	-11367
Up	-11368
img	-11369
▁Mc	-11370
▁Nat	-11371
▁doubt	-11372
▁forum	-11373
▁latitude	-11374
}:	-11375
ceeded	-11376
▁Bey	-11377
▁PHP	-11378
▁metam	-11379
▁truly	-11380
▁gentle	-11381
▁rhythm	-11382
▁creative	-11383
▁shot	-11384
▁career	-11385
▁xy	-11386
clock	-11387
▁bath	-11388
▁"")	-11389
ental	-11390
lantic	-11391
▁Maybe	-11392
▁reson	-11393
direction	-11394
▁professor	-11395
GM	-11396
bu	-11397
▁pour	-11398
Parser	-11399
▁chrom	-11400
▁artificial	-11401
children	-11402
▁paradox	-11403
Alternator	-11404
Dep	-11405
▁".	-11406
▁fut	-11407
\\,\\	-11408
▁Sign	-11409
▁bias	-11410
▁stair	-11411
▁nearby	-11412
▁confirmation	-11413
▁centers	-11414
Check	-11415
▁cush	-11416
prefix	-11417
▁Willi	-11418
▁portal	-11419
▁suppress	-11420
▁Bo	-11421
xyz	-11422
▁proven	-11423
▁priorities	-11424
ummy	-11425
▁opens	-11426
];	-11427
▁conv	-11428
▁Peter	-11429
▁doctor	-11430
▁emerge	-11431
$?\	-11432
ING	-11433
Togg	-11434
▁trop	-11435
▁valu	-11436
▁judge	-11437
▁magma	-11438
esides	-11439
▁commercial	-11440
▁meal	-11441
▁rail	-11442
▁dodge	-11443
▁styling	-11444
▁spinning	-11445
Ne	-11446
loss	-11447
▁shed	-11448
▁chore	-11449
▁identification	-11450
▁feas	-11451
client	-11452
animated	-11453
▁subtree	-11454
transformCache	-11455
grid	-11456
plication	-11457
▁declared	-11458
md	-11459
Eng	-11460
jpg	-11461
ections	-11462
▁spawns	-11463
▁cushion	-11464
▁releases	-11465
▁unnecessary	-11466
▁'_	-11467
▁torch	-11468
▁impress	-11469
▁audience	-11470
▁triggers	-11471
Dr	-11472
▁tone	-11473
▁annih	-11474
▁facts	-11475
▁Result	-11476
▁Japanese	-11477
)_	-11478
conf	-11479
hering	-11480
Default	-11481
▁household	-11482
SI	-11483
uppose	-11484
▁gained	-11485
▁rivers	-11486
▁counterattack	-11487
Non	-11488
Tra	-11489
]$$$.	-11490
▁coil	-11491
▁pose	-11492
▁finger	-11493
ocabulary	-11494
▁Validate	-11495
Car	-11496
rst	-11497
aaaa	-11498
▁studio	-11499
▁expectation	-11500
Method	-11501
▁trick	-11502
▁tweet	-11503
▁corpus	-11504
▁restore	-11505
▁graphical	-11506
▁longitude	-11507
Reg	-11508
▁buff	-11509
▁advice	-11510
▁unbeat	-11511
▁captures	-11512
grad	-11513
()))\	-11514
▁Service	-11515
▁delimit	-11516
printable	-11517
▁preparing	-11518
▁suggested	-11519
▁unbeatable	-11520
▁aqu	-11521
▁male	-11522
▁inver	-11523
category	-11524
lication	-11525
▁drifting	-11526
▁foul	-11527
▁Stage	-11528
▁immune	-11529
▁acceptable	-11530
▁UV	-11531
▁dump	-11532
▁retail	-11533
▁greatly	-11534
▁pairwise	-11535
▁algebraic	-11536
▁wrap	-11537
coring	-11538
ptember	-11539
▁naturally	-11540
amed	-11541
▁SSH	-11542
▁dru	-11543
▁stim	-11544
▁veter	-11545
▁concatenation	-11546
rock	-11547
estic	-11548
event	-11549
▁crop	-11550
▁projectiles	-11551
▁standardized	-11552
_(	-11553
▁Park	-11554
square	-11555
tempor	-11556
▁Table	-11557
▁decremented	-11558
Final	-11559
▁Greek	-11560
▁analyzer	-11561
▁missiles	-11562
▁anomalies	-11563
▁conducted	-11564
▁innovation	-11565
▁reflective	-11566
Idx	-11567
▁Prototype	-11568
Pl	-11569
▁belief	-11570
▁joined	-11571
▁seemingly	-11572
Te	-11573
ql	-11574
pril	-11575
▁LRU	-11576
▁sen	-11577
ships	-11578
▁farm	-11579
predict	-11580
▁parking	-11581
▁substance	-11582
]],	-11583
pled	-11584
enium	-11585
gregate	-11586
▁stretch	-11587
▁restrictions	-11588
cling	-11589
▁attach	-11590
▁contradict	-11591
▁modifiedChar	-11592
oto	-11593
arin	-11594
▁sync	-11595
logger	-11596
mphony	-11597
▁drain	-11598
▁spirit	-11599
▁convergence	-11600
ADME	-11601
atics	-11602
▁cyclic	-11603
▁proofs	-11604
▁expensive	-11605
▁patrolling	-11606
▁educational	-11607
▁VowelRemover	-11608
▁opportunities	-11609
}[	-11610
▁discrep	-11611
Me	-11612
▁Bulk	-11613
▁spectral	-11614
▁conducting	-11615
batch	-11616
hover	-11617
users	-11618
Number	-11619
▁stdout	-11620
typically	-11621
▁Flyweight	-11622
▁grayscale	-11623
▁brac	-11624
▁teleport	-11625
▁ultimately	-11626
▁modulus	-11627
▁rosters	-11628
▁BaseProcessor	-11629
ora	-11630
say	-11631
▁tot	-11632
▁Fire	-11633
hesive	-11634
valent	-11635
whether	-11636
▁Adapter	-11637
▁invariance	-11638
Max	-11639
▁dur	-11640
▁boat	-11641
▁ware	-11642
pocket	-11643
▁Facade	-11644
▁toggler	-11645
▁quantization	-11646
nAre	-11647
nings	-11648
orest	-11649
mentum	-11650
models	-11651
▁orange	-11652
▁evolved	-11653
entry	-11654
atever	-11655
▁staff	-11656
▁resume	-11657
▁schedules	-11658
nAt	-11659
▁Far	-11660
▁jew	-11661
▁dust	-11662
▁hosp	-11663
▁forced	-11664
▁Tak	-11665
▁Schwarz	-11666
▁millisecond	-11667
/(	-11668
km	-11669
memb	-11670
▁hinges	-11671
▁checked	-11672
bi	-11673
▁ped	-11674
absent	-11675
Account	-11676
▁markers	-11677
iab	-11678
Request	-11679
▁greenhouse	-11680
▁Mag	-11681
types	-11682
▁Saga	-11683
▁Memento	-11684
▁realized	-11685
▁linguistic	-11686
fib	-11687
From	-11688
ocial	-11689
▁deleg	-11690
▁fight	-11691
▁assets	-11692
▁distort	-11693
▁adhering	-11694
▁decorated	-11695
▁expertise	-11696
▁rationale	-11697
▁Bill	-11698
▁champ	-11699
▁fibers	-11700
▁automate	-11701
▁Configure	-11702
CI	-11703
Toggler	-11704
▁pointers	-11705
nOn	-11706
▁flap	-11707
▁itertools	-11708
▁dy	-11709
()];\	-11710
▁draws	-11711
oltzmann	-11712
▁decades	-11713
▁categorize	-11714
▁contradiction	-11715
gcd	-11716
xml	-11717
▁'#	-11718
Where	-11719
kappa	-11720
▁($\\	-11721
▁picked	-11722
▁monster	-11723
▁oranges	-11724
insensitive	-11725
▁prioritize	-11726
▁validators	-11727
["	-11728
▁Eq	-11729
Query	-11730
lvert	-11731
▁Land	-11732
▁Sourcing	-11733
'))	-11734
imed	-11735
return	-11736
▁Energy	-11737
▁turtle	-11738
memoized	-11739
▁timeouts	-11740
▁serialize	-11741
Easy	-11742
door	-11743
wood	-11744
DivideAndConquer	-11745
both	-11746
complex	-11747
▁fluent	-11748
▁aligned	-11749
▁underscoring	-11750
▁Hol	-11751
▁Sel	-11752
▁Expert	-11753
getStrategy	-11754
▁capitalized	-11755
oolean	-11756
▁Person	-11757
▁Discord	-11758
▁Expression	-11759
▁ecological	-11760
processCache	-11761
▁pub	-11762
▁dinner	-11763
▁exhibits	-11764
compressed	-11765
▁recording	-11766
amps	-11767
▁Breaker	-11768
▁Mediator	-11769
▁circumst	-11770
▁fixtures	-11771
▁originally	-11772
_,	-11773
eah	-11774
ima	-11775
▁gi	-11776
uber	-11777
▁fract	-11778
▁venue	-11779
▁folders	-11780
▁webpage	-11781
▁junction	-11782
▁lem	-11783
▁tow	-11784
▁CQRS	-11785
▁swipe	-11786
▁Shooting	-11787
▁orthog	-11788
▁Through	-11789
▁exposed	-11790
▁subtracting	-11791
#)	-11792
renc	-11793
elled	-11794
▁cups	-11795
▁forg	-11796
yield	-11797
▁Basic	-11798
▁bands	-11799
cleared	-11800
▁controlling	-11801
▁Ferm	-11802
▁perman	-11803
▁galaxies	-11804
▁iterating	-11805
ENT	-11806
▁felt	-11807
swapped	-11808
through	-11809
▁helium	-11810
▁smiley	-11811
wrapping	-11812
▁hormone	-11813
▁reservoir	-11814
▁eats	-11815
▁circuits	-11816
▁au	-11817
▁hang	-11818
▁stopped	-11819
▁accomplish	-11820
CB	-11821
▁(/[	-11822
▁Fin	-11823
▁Gre	-11824
▁San	-11825
items	-11826
▁Date	-11827
▁blow	-11828
▁crou	-11829
▁Friday	-11830
▁kilometer	-11831
▁physicist	-11832
AX	-11833
etism	-11834
ciousness	-11835
▁Features	-11836
lear	-11837
▁tons	-11838
▁stories	-11839
Sc	-11840
▁tect	-11841
▁antic	-11842
Command	-11843
century	-11844
▁averages	-11845
▁raycasting	-11846
aria	-11847
▁Rich	-11848
Length	-11849
▁getStrategy	-11850
}_${	-11851
▁engines	-11852
▁anywhere	-11853
▁agriculture	-11854
TH	-11855
va	-11856
win	-11857
▁Arc	-11858
▁France	-11859
▁Special	-11860
▁Bulkhead	-11861
▁Handling	-11862
▁thermodynamic	-11863
UR	-11864
▁"-	-11865
▁stays	-11866
▁Relativity	-11867
▁ly	-11868
oche	-11869
▁crouch	-11870
ogeneous	-11871
▁producer	-11872
▁organizing	-11873
▁ratings	-11874
▁spoiler	-11875
▁evaporation	-11876
▁Imp	-11877
▁pulse	-11878
▁church	-11879
▁creator	-11880
rons	-11881
ednes	-11882
othes	-11883
astern	-11884
▁informative	-11885
ked	-11886
▁Att	-11887
▁Link	-11888
askell	-11889
platform	-11890
▁proportions	-11891
ijk	-11892
▁Bern	-11893
▁chamb	-11894
▁newChar	-11895
'])	-11896
)$.\	-11897
joint	-11898
▁Back	-11899
status	-11900
▁expan	-11901
isLetter	-11902
▁Formally	-11903
EST	-11904
▁Jo	-11905
▁Although	-11906
ipart	-11907
▁Exec	-11908
▁uniqu	-11909
▁nutrient	-11910
▁administr	-11911
▁designated	-11912
▁improvements	-11913
▁engaging	-11914
ico	-11915
ypes	-11916
▁Sur	-11917
▁estate	-11918
particle	-11919
▁retrieved	-11920
FA	-11921
▁deposit	-11922
▁joining	-11923
▁SwapCase	-11924
olf	-11925
▁Pen	-11926
▁sees	-11927
▁imped	-11928
▁genome	-11929
eff	-11930
ournal	-11931
aturday	-11932
▁Unlike	-11933
▁authenticated	-11934
lymp	-11935
▁vacc	-11936
parency	-11937
▁manually	-11938
▁operational	-11939
Self	-11940
▁maintainability	-11941
`),	-11942
▁ahead	-11943
▁ultra	-11944
▁Sunday	-11945
▁butter	-11946
ilateral	-11947
▁lexical	-11948
▁citizens	-11949
▁pushable	-11950
▁formulation	-11951
mass	-11952
nostic	-11953
▁escap	-11954
▁mapped	-11955
▁clicked	-11956
▁appending	-11957
▁Jer	-11958
▁ROS	-11959
▁spiral	-11960
▁Gro	-11961
▁Load	-11962
includes	-11963
▁magazine	-11964
▁residents	-11965
▁workflows	-11966
▁geological	-11967
▁adaptability	-11968
raform	-11969
▁Theorem	-11970
▁symphony	-11971
▁-=	-11972
NIST	-11973
▁bear	-11974
▁cores	-11975
▁Modify	-11976
▁assigns	-11977
▁pressed	-11978
▁refract	-11979
▁Road	-11980
ractions	-11981
▁skipping	-11982
▁September	-11983
▁clocks	-11984
▁exploit	-11985
▁spawned	-11986
▁Following	-11987
>;\	-11988
▁Oct	-11989
ropic	-11990
▁tires	-11991
▁syllog	-11992
▁compounded	-11993
IO	-11994
▁`<	-11995
▁Get	-11996
▁catalog	-11997
▁elementary	-11998
▁predictable	-11999
▁intersections	-12000
▁ProcessingStep	-12001
▁Tok	-12002
▁Like	-12003
icense	-12004
▁feels	-12005
roduction	-12006
▁observers	-12007
▁straights	-12008
▁positioned	-12009
▁preference	-12010
▁CaseAlternator	-12011
:\\	-12012
ocy	-12013
bigg	-12014
▁Binary	-12015
▁yourself	-12016
▁concentrations	-12017
qq	-12018
agrams	-12019
stages	-12020
▁Islam	-12021
▁Arm	-12022
token	-12023
▁Project	-12024
▁presents	-12025
▁businesses	-12026
tons	-12027
west	-12028
World	-12029
▁intricacies	-12030
prod	-12031
sell	-12032
▁School	-12033
▁multiplic	-12034
▁maintainable	-12035
men	-12036
Graph	-12037
Iterator	-12038
How	-12039
▁cav	-12040
retion	-12041
▁excell	-12042
ymmetric	-12043
▁healthy	-12044
▁welcome	-12045
▁behave	-12046
▁anomaly	-12047
▁drivers	-12048
▁Answering	-12049
▁infinites	-12050
suffix	-12051
unflag	-12052
▁dollar	-12053
&=	-12054
ko	-12055
content	-12056
▁eigenstates	-12057
Two	-12058
▁IS	-12059
▁furn	-12060
▁March	-12061
▁heated	-12062
▁wedding	-12063
▁Assuming	-12064
}.\	-12065
Hash	-12066
▁bare	-12067
▁episode	-12068
itch	-12069
kick	-12070
▁ple	-12071
ctive	-12072
▁prot	-12073
▁Merkle	-12074
▁numeral	-12075
▁elucidate	-12076
cup	-12077
Dict	-12078
▁puts	-12079
▁uploads	-12080
▁irregular	-12081
▁vocabulary	-12082
XY	-12083
▁PM	-12084
▁Ent	-12085
▁Had	-12086
▁discrimin	-12087
"`	-12088
imp	-12089
nOr	-12090
oor	-12091
ria	-12092
▁git	-12093
▁gains	-12094
▁fitting	-12095
nR	-12096
▁heads	-12097
▁Retrie	-12098
▁facial	-12099
▁json	-12100
custom	-12101
▁tomat	-12102
▁Apache	-12103
▁depict	-12104
▁thoughts	-12105
▁triangular	-12106
▁characteristic	-12107
One	-12108
iry	-12109
▁holid	-12110
aligned	-12111
▁Encode	-12112
▁enduring	-12113
ipy	-12114
ooking	-12115
▁April	-12116
phabets	-12117
vectors	-12118
▁Despite	-12119
▁isolation	-12120
▁producers	-12121
On	-12122
▁$.	-12123
vere	-12124
▁PyQt	-12125
▁penet	-12126
toggled	-12127
▁backup	-12128
▁Huffman	-12129
{}	-12130
▁EX	-12131
amin	-12132
ribute	-12133
▁alerts	-12134
▁borrow	-12135
ynthesis	-12136
▁allocate	-12137
▁researchers	-12138
wars	-12139
▁Most	-12140
▁variant	-12141
▁electronics	-12142
▁illustrates	-12143
▁gates	-12144
TL	-12145
▁Arist	-12146
▁erupt	-12147
▁lucky	-12148
▁peaks	-12149
Service	-12150
▁tetrom	-12151
▁VowelRe	-12152
▁analogy	-12153
▁landscapes	-12154
soft	-12155
antom	-12156
ibration	-12157
▁flipped	-12158
▁publish	-12159
▁maintained	-12160
▁constitution	-12161
▁relate	-12162
▁agreement	-12163
▁Say	-12164
owski	-12165
effect	-12166
▁mixing	-12167
▁pseudo	-12168
▁tweets	-12169
▁purchases	-12170
cember	-12171
▁arter	-12172
▁evolve	-12173
▁geodes	-12174
▁notion	-12175
▁writer	-12176
ednesday	-12177
spacebar	-12178
'\\	-12179
$$$;	-12180
▁URI	-12181
▁aid	-12182
▁wasn	-12183
resume	-12184
▁George	-12185
baseCode	-12186
▁Utilize	-12187
incrementer	-12188
empt	-12189
illed	-12190
▁scrut	-12191
▁district	-12192
reed	-12193
▁turbul	-12194
▁mammals	-12195
▁networking	-12196
Fe	-12197
mc	-12198
▁ade	-12199
▁pup	-12200
▁Prem	-12201
ferent	-12202
▁pulling	-12203
▁Beautiful	-12204
site	-12205
}\).	-12206
▁Order	-12207
▁oceans	-12208
▁officer	-12209
▁vacation	-12210
inoes	-12211
Transformations	-12212
▁=\\	-12213
fered	-12214
ornia	-12215
price	-12216
▁compli	-12217
▁trainer	-12218
▁starfield	-12219
),(	-12220
▁Train	-12221
▁tunnel	-12222
▁clothes	-12223
▁coupled	-12224
▁augmentation	-12225
▁concatenated	-12226
#),	-12227
zip	-12228
should	-12229
▁linking	-12230
▁responsibility	-12231
omes	-12232
three	-12233
▁verb	-12234
▁Multi	-12235
entropy	-12236
▁insects	-12237
▁evaluated	-12238
▁exchanges	-12239
▁declaration	-12240
▁flexibility	-12241
▁eq	-12242
ders	-12243
star	-12244
▁Lou	-12245
▁lim	-12246
▁walks	-12247
▁plasma	-12248
▁slicing	-12249
▁proposal	-12250
▁aesthetic	-12251
ober	-12252
▁Pri	-12253
▁tack	-12254
stable	-12255
▁Enter	-12256
▁becoming	-12257
yp	-12258
▁Est	-12259
▁ancest	-12260
▁hybrid	-12261
'):\	-12262
▁Odd	-12263
▁pion	-12264
profit	-12265
some	-12266
▁bike	-12267
rophic	-12268
ui	-12269
▁VM	-12270
cous	-12271
▁Rad	-12272
▁FAST	-12273
▁July	-12274
▁piles	-12275
▁publication	-12276
▁oun	-12277
nwith	-12278
▁indef	-12279
project	-12280
nSuppose	-12281
none	-12282
)}{\\	-12283
▁WebS	-12284
password	-12285
▁bridges	-12286
▁Terraform	-12287
▁decorators	-12288
▁ingredient	-12289
Info	-12290
▁infect	-12291
▁formalized	-12292
lli	-12293
ifornia	-12294
▁stronger	-12295
>().	-12296
▁marking	-12297
UDA	-12298
▁Bi	-12299
▁arid	-12300
▁README	-12301
▁encourage	-12302
#).	-12303
▁bytecode	-12304
▁dots	-12305
▁impul	-12306
▁teles	-12307
▁strain	-12308
modifier	-12309
▁pseudocode	-12310
bool	-12311
▁soils	-12312
▁bonding	-12313
▁completes	-12314
HH	-12315
▁hosts	-12316
▁transparent	-12317
*),	-12318
▁Plate	-12319
▁adiab	-12320
▁breed	-12321
▁spont	-12322
▁charity	-12323
CF	-12324
OO	-12325
▁_{	-12326
stud	-12327
▁Comm	-12328
▁monot	-12329
▁propose	-12330
▁spheres	-12331
▁confined	-12332
▁paradigms	-12333
Run	-12334
▁Terrain	-12335
▁towering	-12336
▁capturing	-12337
▁termination	-12338
▁yi	-12339
schild	-12340
▁newly	-12341
▁mathematician	-12342
BA	-12343
PL	-12344
nb	-12345
bru	-12346
cis	-12347
▁Tele	-12348
upported	-12349
▁superior	-12350
▁continued	-12351
rolled	-12352
▁cream	-12353
address	-12354
▁Aristot	-12355
▁metabolic	-12356
▁predicting	-12357
east	-12358
▁confident	-12359
NT	-12360
mi	-12361
ben	-12362
▁egg	-12363
▁abund	-12364
▁bullet	-12365
▁extending	-12366
▁extensible	-12367
▁tetrominoes	-12368
"/	-12369
BS	-12370
OW	-12371
Date	-12372
▁semic	-12373
▁vessel	-12374
▁plastic	-12375
▁viscous	-12376
dist	-12377
▁Schr	-12378
▁realize	-12379
HS	-12380
IV	-12381
uing	-12382
ympt	-12383
cribed	-12384
▁August	-12385
▁Studies	-12386
▁topology	-12387
▁Predators	-12388
▁acknowled	-12389
▁bandwidth	-12390
_#	-12391
▁ga	-12392
▁rolls	-12393
▁theme	-12394
▁mostly	-12395
▁ShifterFactory	-12396
dog	-12397
ieve	-12398
_{-\\	-12399
▁artis	-12400
▁$,	-12401
abin	-12402
actic	-12403
isson	-12404
▁probabil	-12405
▁spins	-12406
▁auxiliary	-12407
▁facilitating	-12408
|,	-12409
aml	-12410
lia	-12411
Mult	-12412
Start	-12413
cible	-12414
▁fans	-12415
oulomb	-12416
▁colon	-12417
▁insul	-12418
▁gaming	-12419
▁showed	-12420
▁isLetter	-12421
▁alphabets	-12422
▁decryption	-12423
▁bomb	-12424
▁Micro	-12425
ufficient	-12426
▁neutrons	-12427
.")\	-12428
omic	-12429
tool	-12430
ithub	-12431
▁hierarchies	-12432
LC	-12433
▁fa	-12434
home	-12435
▁partners	-12436
▁prefixes	-12437
▁bidirectional	-12438
ano	-12439
cre	-12440
admin	-12441
ralax	-12442
▁erosion	-12443
▁village	-12444
▁parralax	-12445
EM	-12446
ulf	-12447
▁Search	-12448
▁humble	-12449
▁submodules	-12450
kx	-12451
URL	-12452
▁Wien	-12453
launch	-12454
▁ambig	-12455
▁chron	-12456
▁unanswerable	-12457
▁createProcessor	-12458
Exec	-12459
nNote	-12460
ahashi	-12461
shaped	-12462
▁Paris	-12463
▁compos	-12464
▁summing	-12465
▁essentially	-12466
▁Super	-12467
▁emphasis	-12468
▁covariant	-12469
▁Bur	-12470
▁emerges	-12471
▁allocated	-12472
▁discipline	-12473
blue	-12474
bone	-12475
stdex	-12476
nThank	-12477
uggest	-12478
riminal	-12479
▁exchang	-12480
stdexcept	-12481
▁transmitted	-12482
▁Bra	-12483
▁ell	-12484
▁nur	-12485
▁fermions	-12486
▁transparency	-12487
)\)	-12488
▁Prey	-12489
▁prox	-12490
domain	-12491
▁sender	-12492
▁deliber	-12493
▁distinction	-12494
▁facilitated	-12495
createProcessor	-12496
divideAndConquer	-12497
▁Sl	-12498
acker	-12499
▁cosmic	-12500
▁Facebook	-12501
▁workplace	-12502
▁examination	-12503
▁accumulation	-12504
GH	-12505
RF	-12506
!("	-12507
▁'',	-12508
inite	-12509
▁plug	-12510
▁masks	-12511
▁solely	-12512
ographer	-12513
periment	-12514
▁classroom	-12515
Pi	-12516
adjust	-12517
▁negligible	-12518
+(	-12519
▁/[	-12520
▁meals	-12521
Shifted	-12522
composite	-12523
temporary	-12524
▁terminate	-12525
}}.	-12526
utch	-12527
▁Among	-12528
▁Figure	-12529
▁phosph	-12530
▁Berland	-12531
▁residual	-12532
▁circumstances	-12533
VER	-12534
▁refund	-12535
▁weekend	-12536
▁percentages	-12537
▁bulb	-12538
▁forget	-12539
▁silver	-12540
▁voters	-12541
▁islands	-12542
DS	-12543
})^	-12544
oral	-12545
▁knife	-12546
icksort	-12547
▁booking	-12548
▁overrid	-12549
▁callbacks	-12550
▁fragments	-12551
▁protected	-12552
▁conceptual	-12553
▁Incorporate	-12554
▁deformation	-12555
CNN	-12556
Soup	-12557
▁artists	-12558
▁authority	-12559
▁continuity	-12560
▁motivation	-12561
▁Arr	-12562
▁Tri	-12563
▁Long	-12564
▁Oper	-12565
▁valence	-12566
▁pipelines	-12567
ini	-12568
iction	-12569
▁boson	-12570
▁Saturday	-12571
▁cultures	-12572
▁fo	-12573
▁mand	-12574
▁arrives	-12575
▁official	-12576
RA	-12577
▁RESTful	-12578
▁kingdom	-12579
▁tip	-12580
import	-12581
▁Optim	-12582
▁astronom	-12583
▁musician	-12584
▁inductive	-12585
▁chessboard	-12586
logs	-12587
rule	-12588
Message	-12589
▁Little	-12590
▁measurable	-12591
▁Cre	-12592
▁surpr	-12593
▁allele	-12594
▁magnets	-12595
▁terrain	-12596
▁textbooks	-12597
▁singularity	-12598
NU	-12599
aptic	-12600
▁appeared	-12601
▁frontend	-12602
▁shiftedCode	-12603
]=	-12604
▁(\	-12605
▁Mart	-12606
▁army	-12607
propag	-12608
▁cookie	-12609
▁immutable	-12610
▁repetition	-12611
▁contributes	-12612
▁Li	-12613
mitian	-12614
▁Atlantic	-12615
▁crystall	-12616
▁soldiers	-12617
▁confusing	-12618
▁visualizations	-12619
acob	-12620
There	-12621
▁proved	-12622
▁recess	-12623
▁struggling	-12624
");	-12625
▁Vari	-12626
▁kick	-12627
▁essay	-12628
▁quote	-12629
itudinal	-12630
▁mineral	-12631
enuity	-12632
propto	-12633
▁fence	-12634
▁imper	-12635
▁asympt	-12636
▁quarks	-12637
▁sector	-12638
▁Selenium	-12639
▁artifacts	-12640
▁everywhere	-12641
▁orthogonal	-12642
Des	-12643
▁Jim	-12644
▁dream	-12645
▁establishing	-12646
▁metall	-12647
▁ingenuity	-12648
▁guidelines	-12649
Pr	-12650
forms	-12651
bruary	-12652
request	-12653
▁mistakes	-12654
▁cylindrical	-12655
▁EC	-12656
Call	-12657
▁tie	-12658
▁UUID	-12659
▁evening	-12660
▁subscrib	-12661
▁membership	-12662
▁jewel	-12663
▁Player	-12664
▁intertw	-12665
▁rearran	-12666
▁December	-12667
▁California	-12668
▁generations	-12669
End	-12670
▁SSL	-12671
ductor	-12672
▁stacks	-12673
▁earthquake	-12674
NE	-12675
▁Lu	-12676
▁Mus	-12677
▁settle	-12678
▁defaults	-12679
▁societal	-12680
▁')	-12681
parrow	-12682
▁swift	-12683
asoning	-12684
▁gluten	-12685
▁wealth	-12686
▁assumes	-12687
▁trivial	-12688
isUpperCase	-12689
▁db	-12690
area	-12691
▁Const	-12692
▁Sports	-12693
Reversal	-12694
▁alleles	-12695
▁federal	-12696
▁Universe	-12697
▁Cartesian	-12698
▁contraction	-12699
▁collectively	-12700
▁Jup	-12701
being	-12702
▁coast	-12703
Rotator	-12704
colored	-12705
▁Lastly	-12706
________	-12707
▁introduces	-12708
▁constructing	-12709
isk	-12710
▁',	-12711
lobal	-12712
nWhich	-12713
▁Beyond	-12714
▁planes	-12715
▁Haskell	-12716
Generator	-12717
▁whatever	-12718
";\	-12719
ford	-12720
▁Joh	-12721
▁MNIST	-12722
▁inversely	-12723
▁initiatives	-12724
)_{	-12725
ulpt	-12726
▁democr	-12727
▁religious	-12728
▁vibration	-12729
▁{{	-12730
>()(	-12731
▁simpler	-12732
▁codebase	-12733
▁Wednesday	-12734
▁CE	-12735
nger	-12736
▁$(\\	-12737
▁fort	-12738
Encode	-12739
Module	-12740
ITransformer	-12741
)),\	-12742
sync	-12743
▁SDK	-12744
▁lun	-12745
▁fits	-12746
▁Union	-12747
▁Empire	-12748
▁qubits	-12749
▁broadcast	-12750
▁philosopher	-12751
;&	-12752
}")\	-12753
▁poles	-12754
▁Central	-12755
▁Language	-12756
▁integrals	-12757
Mix	-12758
iral	-12759
nCould	-12760
▁lunch	-12761
average	-12762
▁scanning	-12763
sts	-12764
▁beta	-12765
▁thumb	-12766
▁lateral	-12767
▁DNS	-12768
,...,	-12769
▁compens	-12770
▁societies	-12771
▁incrementer	-12772
▁sac	-12773
etary	-12774
▁busy	-12775
▁stake	-12776
OrderBy	-12777
▁breath	-12778
▁emerged	-12779
▁offered	-12780
▁simulated	-12781
)))\	-12782
▁phon	-12783
charge	-12784
violet	-12785
========	-12786
▁journal	-12787
▁justice	-12788
▁annotation	-12789
▁millimeters	-12790
▁genre	-12791
ometers	-12792
▁sheets	-12793
▁ongoing	-12794
isLowerCase	-12795
▁encounters	-12796
rows	-12797
caten	-12798
power	-12799
mapping	-12800
▁invert	-12801
▁partner	-12802
▁resultant	-12803
▁alternated	-12804
Event	-12805
▁knew	-12806
▁musical	-12807
▁Together	-12808
▁assertion	-12809
▁vegetables	-12810
era	-12811
▁'')\	-12812
▁housing	-12813
▁ignored	-12814
▁persons	-12815
▁speedup	-12816
▁somewhat	-12817
▁kilograms	-12818
▁instruments	-12819
▁theoretically	-12820
}+\	-12821
util	-12822
▁ceil	-12823
▁insp	-12824
▁rainfall	-12825
▁dielectric	-12826
▁insulation	-12827
▁subdirectories	-12828
ago	-12829
▁cere	-12830
nesses	-12831
▁tea	-12832
Table	-12833
avail	-12834
▁liquids	-12835
▁efficacy	-12836
overrightarrow	-12837
vv	-12838
Min	-12839
bur	-12840
▁alphabetic	-12841
entation	-12842
#:	-12843
nor	-12844
▁Mac	-12845
▁RPM	-12846
▁IData	-12847
TResult	-12848
..],	-12849
Task	-12850
▁zeroes	-12851
▁fission	-12852
▁unsorted	-12853
▁performant	-12854
▁af	-12855
▁diagn	-12856
▁reconc	-12857
▁sculpt	-12858
▁Elastic	-12859
▁October	-12860
▁droplets	-12861
▁breakdown	-12862
▁perceived	-12863
).__	-12864
▁putting	-12865
▁firewall	-12866
().__	-12867
Trans	-12868
▁Yeah	-12869
▁Coulomb	-12870
▁Extract	-12871
▁highlights	-12872
▁IDataReader	-12873
▁paras	-12874
uparrow	-12875
▁repair	-12876
▁blocked	-12877
▁checker	-12878
▁answering	-12879
▁collecting	-12880
▁compromise	-12881
▁BeautifulSoup	-12882
enny	-12883
atomic	-12884
istant	-12885
▁mentor	-12886
▁cohesive	-12887
▁iterates	-12888
Op	-12889
ascal	-12890
folds	-12891
▁CUDA	-12892
▁meat	-12893
estone	-12894
▁antib	-12895
▁sympt	-12896
▁losing	-12897
++++++++	-12898
▁surprise	-12899
PD	-12900
ander	-12901
▁exams	-12902
▁adults	-12903
aspberry	-12904
▁threats	-12905
▁exercises	-12906
▁constrained	-12907
▁generalized	-12908
▁firstCharCode	-12909
Tests	-12910
toler	-12911
useum	-12912
ainder	-12913
▁phrases	-12914
▁thoroughly	-12915
▁probabilistic	-12916
mis	-12917
▁shear	-12918
▁grouped	-12919
▁hypothe	-12920
▁packing	-12921
▁replaces	-12922
▁resilient	-12923
((&	-12924
aken	-12925
▁kid	-12926
▁pins	-12927
▁puzz	-12928
▁pulled	-12929
▁Sk	-12930
▁William	-12931
▁commits	-12932
rocessing	-12933
nOne	-12934
nbut	-12935
codewars	-12936
ositories	-12937
▁milliseconds	-12938
doc	-12939
▁evolving	-12940
▁simplest	-12941
▁preceding	-12942
nx	-12943
▁Islamic	-12944
▁fabrics	-12945
▁Schwarzschild	-12946
fs	-12947
_{-	-12948
ags	-12949
ipp	-12950
▁dyn	-12951
gument	-12952
▁ended	-12953
replaced	-12954
▁fixture	-12955
▁linearly	-12956
accumulate	-12957
iodiversity	-12958
▁dramatically	-12959
▁storm	-12960
▁shells	-12961
restrial	-12962
▁essence	-12963
▁Validation	-12964
▁attraction	-12965
CharProcessor	-12966
▁sine	-12967
▁Review	-12968
▁markets	-12969
▁podcast	-12970
▁reverses	-12971
TS	-12972
backs	-12973
}}$$\	-12974
▁Users	-12975
▁parabol	-12976
▁renders	-12977
▁subsequently	-12978
\%	-12979
▁NU	-12980
LECT	-12981
▁bub	-12982
▁jury	-12983
▁volat	-12984
▁Fermat	-12985
▁Visual	-12986
▁widgets	-12987
▁reversing	-12988
▁valuable	-12989
▁navigating	-12990
▁getNextChar	-12991
days	-12992
▁bosons	-12993
▁examine	-12994
▁warming	-12995
Component	-12996
▁altering	-12997
▁capability	-12998
▁cas	-12999
▁sad	-13000
Empty	-13001
▁anten	-13002
▁presses	-13003
▁younger	-13004
▁converge	-13005
▁chairs	-13006
▁climates	-13007
▁swapping	-13008
▁acceptance	-13009
▁repositories	-13010
>`	-13011
osh	-13012
NAME	-13013
small	-13014
▁Mink	-13015
▁primitive	-13016
firstCharCode	-13017
▁Oâ	-13018
▁hun	-13019
charAt	-13020
threads	-13021
▁Embark	-13022
▁thrive	-13023
▁nucleot	-13024
▁**_	-13025
▁OOP	-13026
]$$$,	-13027
▁Fermi	-13028
▁Total	-13029
▁arrived	-13030
▁melting	-13031
▁CaseToggler	-13032
eg	-13033
artment	-13034
▁refrig	-13035
▁newResult	-13036
▁ITransform	-13037
▁constantly	-13038
▁Ri	-13039
mits	-13040
match	-13041
▁Exception	-13042
▁SO	-13043
▁kth	-13044
oning	-13045
▁neck	-13046
▁overs	-13047
▁anonym	-13048
▁fertil	-13049
ociation	-13050
▁eliminate	-13051
tee	-13052
▁Well	-13053
▁inversion	-13054
▁transfers	-13055
▁longitudinal	-13056
▁comprehensions	-13057
▁FR	-13058
▁ci	-13059
rend	-13060
orous	-13061
▁nine	-13062
▁crime	-13063
▁colour	-13064
▁civilizations	-13065
▁vulnerability	-13066
▁ML	-13067
▁Que	-13068
▁aer	-13069
▁Olymp	-13070
▁Current	-13071
▁backwards	-13072
▁`(	-13073
Oper	-13074
crum	-13075
cience	-13076
▁Direct	-13077
▁focused	-13078
▁chloride	-13079
Controller	-13080
▁laboratory	-13081
▁WH	-13082
▁ti	-13083
▁utilizes	-13084
displaystyle	-13085
wedge	-13086
▁stark	-13087
▁diamond	-13088
▁focuses	-13089
▁governs	-13090
▁frictional	-13091
▁Cat	-13092
▁Gen	-13093
▁neu	-13094
oking	-13095
▁River	-13096
▁chlorine	-13097
▁simultaneous	-13098
php	-13099
rance	-13100
▁peer	-13101
▁collector	-13102
getInstance	-13103
▁manageable	-13104
▁instantiate	-13105
PR	-13106
uv	-13107
.",	-13108
▁Jul	-13109
▁jar	-13110
▁athlet	-13111
▁spider	-13112
▁deployed	-13113
dependency	-13114
▁warehouse	-13115
▁&[(	-13116
▁Lie	-13117
▁bench	-13118
▁Michael	-13119
rank	-13120
▁Ohm	-13121
▁Diff	-13122
levant	-13123
▁repul	-13124
express	-13125
orthern	-13126
▁athlete	-13127
▁receiver	-13128
▁arrangements	-13129
▁UK	-13130
iner	-13131
hance	-13132
lessly	-13133
▁modest	-13134
isenberg	-13135
▁expands	-13136
▁consonant	-13137
▁passenger	-13138
)$?	-13139
balanced	-13140
▁claimed	-13141
▁Modifier	-13142
propagation	-13143
▁IPv	-13144
▁fest	-13145
ibrary	-13146
▁Francis	-13147
▁lighter	-13148
▁February	-13149
▁Takahashi	-13150
▁retention	-13151
sets	-13152
nhttp	-13153
iously	-13154
▁assemble	-13155
▁pie	-13156
▁tut	-13157
▁stabil	-13158
▁Ability	-13159
▁heavily	-13160
pc	-13161
▁honey	-13162
▁reuse	-13163
▁pushes	-13164
▁criminal	-13165
}",	-13166
▁icon	-13167
▁inqu	-13168
andarin	-13169
▁defect	-13170
▁indicated	-13171
▁volunteers	-13172
▁participation	-13173
($	-13174
_+	-13175
▁lots	-13176
Respon	-13177
▁guests	-13178
reverseHelper	-13179
ti	-13180
anal	-13181
template	-13182
▁clothing	-13183
▁alongside	-13184
▁occlusion	-13185
ras	-13186
lipt	-13187
obic	-13188
▁fake	-13189
▁Random	-13190
▁opinion	-13191
▁pencils	-13192
itatively	-13193
▁director	-13194
▁disabled	-13195
▁diffraction	-13196
▁shiftCharacter	-13197
▁ende	-13198
▁boiling	-13199
ancies	-13200
aggregate	-13201
▁formalism	-13202
▁facilitates	-13203
Na	-13204
()))	-13205
▁Our	-13206
▁Rewrite	-13207
▁similarly	-13208
▁sustainability	-13209
.).	-13210
trm	-13211
}$)	-13212
glass	-13213
rease	-13214
▁Keep	-13215
▁cans	-13216
ymmetry	-13217
▁ellipt	-13218
▁tiling	-13219
Iterative	-13220
▁Recently	-13221
processChar	-13222
mol	-13223
}^{\	-13224
aylor	-13225
▁asset	-13226
Dataset	-13227
▁Simple	-13228
determin	-13229
▁chicken	-13230
▁lookups	-13231
recursion	-13232
▁consequence	-13233
vit	-13234
road	-13235
▁Bit	-13236
▁amid	-13237
▁sett	-13238
▁chaos	-13239
▁placeholders	-13240
Mutex	-13241
lenec	-13242
▁Tuple	-13243
memoKey	-13244
▁propagate	-13245
▁sustaining	-13246
nG	-13247
yo	-13248
_#_#	-13249
▁oblig	-13250
consonant	-13251
▁dependence	-13252
▁suggesting	-13253
▁veterinary	-13254
LM	-13255
iest	-13256
}_\\	-13257
textrm	-13258
▁adoption	-13259
▁suddenly	-13260
▁teachers	-13261
buildString	-13262
consecutive	-13263
AV	-13264
▁Mi	-13265
equal	-13266
hh	-13267
Ref	-13268
unic	-13269
▁cel	-13270
▁Comb	-13271
▁sanit	-13272
▁averaging	-13273
▁equilateral	-13274
▁establishes	-13275
lad	-13276
isted	-13277
▁cash	-13278
olution	-13279
▁tuning	-13280
▁conjugate	-13281
▁contemporary	-13282
▁distributing	-13283
transformedChar	-13284
rants	-13285
▁indexed	-13286
▁interests	-13287
▁intuitively	-13288
▁gly	-13289
ioned	-13290
riage	-13291
▁Mars	-13292
▁died	-13293
▁quit	-13294
▁taught	-13295
▁thinks	-13296
▁decoded	-13297
▁fitness	-13298
▁emotions	-13299
▁president	-13300
▁doubly	-13301
alphabet	-13302
▁tailored	-13303
_**	-13304
rif	-13305
▁AES	-13306
green	-13307
()),	-13308
ispens	-13309
▁Galile	-13310
▁authenticate	-13311
▁translations	-13312
}|\\	-13313
▁Final	-13314
▁ammon	-13315
ologist	-13316
response	-13317
▁Germany	-13318
▁Logging	-13319
cut	-13320
xiv	-13321
▁chip	-13322
▁helped	-13323
▁programmer	-13324
BM	-13325
Valid	-13326
▁clay	-13327
merged	-13328
symbol	-13329
▁dispar	-13330
▁marvel	-13331
▁strike	-13332
▁conformal	-13333
▁indispens	-13334
▁innovations	-13335
▁photography	-13336
cf	-13337
▁OK	-13338
▁shoes	-13339
▁vivid	-13340
▁dispatch	-13341
▁microbial	-13342
▁objectives	-13343
squ	-13344
▁harv	-13345
ivered	-13346
agrange	-13347
▁knight	-13348
▁occupy	-13349
▁newline	-13350
▁harnessed	-13351
▁purchasing	-13352
▁refraction	-13353
BD	-13354
teen	-13355
▁leq	-13356
▁recy	-13357
banana	-13358
▁neglect	-13359
▁inflation	-13360
Can	-13361
▁seg	-13362
sided	-13363
▁Suggest	-13364
racy	-13365
▁Div	-13366
▁pron	-13367
▁estimates	-13368
(!	-13369
▁explos	-13370
▁justify	-13371
▁Republic	-13372
▁normally	-13373
shiftedCode	-13374
▁``	-13375
▁seism	-13376
▁enzyme	-13377
▁collaps	-13378
▁jewelry	-13379
organized	-13380
▁amort	-13381
▁modal	-13382
issance	-13383
▁paired	-13384
▁inspect	-13385
▁hormones	-13386
▁fertility	-13387
▁positioning	-13388
Ab	-13389
eh	-13390
igits	-13391
▁spots	-13392
▁imaging	-13393
▁Newtonian	-13394
▁oh	-13395
▁Mill	-13396
▁weig	-13397
abb	-13398
istor	-13399
nWould	-13400
▁Rotator	-13401
ferencing	-13402
▁numerous	-13403
▁exhaustive	-13404
But	-13405
▁MD	-13406
Phase	-13407
aining	-13408
▁survive	-13409
▁Minkowski	-13410
_)	-13411
]`.	-13412
olic	-13413
eness	-13414
▁cosine	-13415
▁hospital	-13416
▁assigning	-13417
▁eigenvalue	-13418
seq	-13419
oader	-13420
▁House	-13421
▁Pauli	-13422
▁weave	-13423
▁incomplete	-13424
▁physicists	-13425
▁Ray	-13426
binary	-13427
▁probe	-13428
▁sixth	-13429
dynamics	-13430
▁preempt	-13431
lowerChar	-13432
▁manufacturing	-13433
Rep	-13434
]->	-13435
keep	-13436
account	-13437
▁Street	-13438
▁positional	-13439
▁indispensable	-13440
▁infinitesimal	-13441
||	-13442
ulo	-13443
Cell	-13444
▁plaus	-13445
categor	-13446
▁extent	-13447
▁elevator	-13448
▁pollution	-13449
▁conventional	-13450
expr	-13451
▁mil	-13452
ename	-13453
▁Deep	-13454
▁pinpoint	-13455
▁speaking	-13456
▁stretching	-13457
▁stub	-13458
viation	-13459
▁agreed	-13460
▁optics	-13461
▁mile	-13462
idance	-13463
▁Somet	-13464
▁crafts	-13465
▁robots	-13466
▁convenience	-13467
'_	-13468
)$$	-13469
▁dil	-13470
▁Cour	-13471
▁ReLU	-13472
▁Andrew	-13473
▁logged	-13474
▁reminder	-13475
▁Raspberry	-13476
▁bottlenec	-13477
▁partially	-13478
▁invitation	-13479
oys	-13480
Results	-13481
▁comprising	-13482
▁thrown	-13483
▁airflow	-13484
▁rewrite	-13485
Reasoning	-13486
▁participate	-13487
▁trajectories	-13488
dV	-13489
inue	-13490
▁unp	-13491
Mixin	-13492
▁isize	-13493
▁trunc	-13494
▁timezone	-13495
AEIOUaeiou	-13496
approximately	-13497
▁DigitProcessor	-13498
zes	-13499
▁Social	-13500
anas	-13501
▁auction	-13502
▁mutation	-13503
Pat	-13504
▁bowl	-13505
▁legend	-13506
▁trapped	-13507
▁populate	-13508
▁Heisenberg	-13509
▁indentation	-13510
_[	-13511
orean	-13512
▁Common	-13513
▁spinor	-13514
▁deductive	-13515
(-\\	-13516
high	-13517
▁kata	-13518
▁advert	-13519
▁biases	-13520
▁purple	-13521
▁Machine	-13522
▁packaging	-13523
▁psychology	-13524
▁possibilities	-13525
"/>	-13526
▁End	-13527
spring	-13528
▁Poisson	-13529
▁anagrams	-13530
▁portions	-13531
▁discussions	-13532
rout	-13533
▁Oce	-13534
▁gone	-13535
reading	-13536
▁supers	-13537
▁implicit	-13538
structions	-13539
▁psychological	-13540
▁cra	-13541
icating	-13542
▁remind	-13543
▁wearing	-13544
▁Identity	-13545
▁discussing	-13546
▁condensation	-13547
LET	-13548
▁CS	-13549
cost	-13550
▁purs	-13551
▁trim	-13552
access	-13553
▁Store	-13554
▁freely	-13555
▁golden	-13556
▁commute	-13557
▁totally	-13558
Alternate	-13559
▁calibration	-13560
since	-13561
▁Human	-13562
▁findings	-13563
▁instruct	-13564
▁resolved	-13565
▁sustained	-13566
lic	-13567
▁KE	-13568
nAss	-13569
outhern	-13570
description	-13571
▁adjustment	-13572
▁ok	-13573
etal	-13574
many	-13575
race	-13576
plier	-13577
▁debt	-13578
▁bills	-13579
▁ballet	-13580
.__	-13581
now	-13582
hene	-13583
Custom	-13584
▁Organ	-13585
▁logout	-13586
▁shares	-13587
▁coloring	-13588
$'	-13589
▁Home	-13590
▁trap	-13591
marker	-13592
momentum	-13593
▁Without	-13594
▁pointed	-13595
▁synthesis	-13596
CSV	-13597
attr	-13598
imals	-13599
▁managers	-13600
▁religion	-13601
▁philosophy	-13602
▁Has	-13603
arity	-13604
ursday	-13605
▁baking	-13606
▁marker	-13607
▁transit	-13608
▁hostname	-13609
▁polygons	-13610
▁compliance	-13611
]];\	-13612
liers	-13613
Engine	-13614
hesion	-13615
system	-13616
▁wheat	-13617
▁President	-13618
▁respiration	-13619
▁gig	-13620
▁quas	-13621
▁Gauss	-13622
▁hydra	-13623
▁juice	-13624
ifferent	-13625
▁propagator	-13626
▁mu	-13627
wave	-13628
aping	-13629
iotic	-13630
▁${\\	-13631
ivores	-13632
middle	-13633
▁intel	-13634
▁YouTube	-13635
▁predictive	-13636
▁cosmological	-13637
▁inconsistencies	-13638
()`,	-13639
sign	-13640
▁People	-13641
▁marine	-13642
########	-13643
▁dataframe	-13644
▁sufficiently	-13645
amel	-13646
ictor	-13647
rying	-13648
▁denser	-13649
Response	-13650
▁instantaneous	-13651
'`	-13652
{"	-13653
▁Cel	-13654
ovember	-13655
▁sought	-13656
▁dramatic	-13657
▁())	-13658
chastic	-13659
▁meetings	-13660
▁numerals	-13661
▁Formulate	-13662
▁exclusion	-13663
aj	-13664
nis	-13665
sql	-13666
you	-13667
▁+\\	-13668
Search	-13669
▁rememb	-13670
▁Internet	-13671
▁backbone	-13672
AI	-13673
nin	-13674
zens	-13675
▁CIF	-13676
▁boot	-13677
moving	-13678
Element	-13679
▁Italian	-13680
▁fulcrum	-13681
▁grouping	-13682
▁summation	-13683
▁congruence	-13684
arct	-13685
▁cot	-13686
▁Thom	-13687
▁tied	-13688
▁Brown	-13689
writing	-13690
▁causal	-13691
▁indoor	-13692
▁Translate	-13693
▁separator	-13694
▁unw	-13695
▁fell	-13696
()));\	-13697
▁Appro	-13698
▁nuanced	-13699
Duplicate	-13700
▁Analysis	-13701
▁recipient	-13702
▁renewable	-13703
▁discounted	-13704
▁expiration	-13705
)!	-13706
eted	-13707
cover	-13708
▁fart	-13709
▁leak	-13710
▁lets	-13711
▁till	-13712
▁Grand	-13713
▁forth	-13714
▁clause	-13715
▁absorbs	-13716
▁futures	-13717
▁highway	-13718
▁organism	-13719
▁Functions	-13720
▁celebrity	-13721
▁discussed	-13722
▁redundant	-13723
▁registering	-13724
]\\	-13725
ailable	-13726
▁expend	-13727
▁alphabetically	-13728
mal	-13729
when	-13730
▁ate	-13731
▁Year	-13732
parallel	-13733
▁decline	-13734
▁readily	-13735
▁emphasizing	-13736
▁evolutionary	-13737
OI	-13738
▁Page	-13739
Change	-13740
series	-13741
▁neutr	-13742
▁radii	-13743
agnetic	-13744
▁representative	-13745
ova	-13746
pan	-13747
ochond	-13748
▁constitu	-13749
coordinate	-13750
▁upwards	-13751
▁lightweight	-13752
▁opportunity	-13753
itz	-13754
▁bic	-13755
▁det	-13756
oline	-13757
▁Title	-13758
▁potat	-13759
▁bubbles	-13760
▁shelves	-13761
▁believed	-13762
▁Consonant	-13763
shiftCharacter	-13764
▁clarification	-13765
ugal	-13766
▁Ele	-13767
▁Mex	-13768
▁Serv	-13769
Indices	-13770
▁appeal	-13771
▁lenses	-13772
▁guidance	-13773
▁footprint	-13774
▁Unity	-13775
ochemical	-13776
▁apparently	-13777
▁multiprocessing	-13778
ita	-13779
ieval	-13780
▁neuron	-13781
▁macroscopic	-13782
▁terrestrial	-13783
▁ln	-13784
▁RNN	-13785
alism	-13786
▁Temp	-13787
fitting	-13788
▁Center	-13789
▁unseen	-13790
▁catering	-13791
▁ultraviolet	-13792
Sw	-13793
▁rit	-13794
Prime	-13795
nFirst	-13796
▁voter	-13797
▁altered	-13798
▁initiate	-13799
▁singleton	-13800
▁Alphabetic	-13801
Per	-13802
▁CSP	-13803
▁hus	-13804
▁Range	-13805
▁atten	-13806
▁trials	-13807
▁notebook	-13808
ipse	-13809
▁bet	-13810
arding	-13811
▁nation	-13812
▁tectonic	-13813
ographical	-13814
▁concerned	-13815
▁delivered	-13816
Ops	-13817
eor	-13818
rea	-13819
scr	-13820
paces	-13821
▁acids	-13822
▁Effect	-13823
▁Middle	-13824
▁Kingdom	-13825
▁crosses	-13826
tc	-13827
▁bc	-13828
▁QED	-13829
▁],\	-13830
▁bugs	-13831
uption	-13832
▁wings	-13833
▁singly	-13834
▁articul	-13835
▁lifetime	-13836
▁supplied	-13837
▁mitochond	-13838
▁conversations	-13839
foo	-13840
ulic	-13841
▁Age	-13842
▁Did	-13843
▁asp	-13844
▁bookstore	-13845
▁brightness	-13846
▁reverseHelper	-13847
▁mathematicians	-13848
SD	-13849
IME	-13850
▁fu	-13851
elly	-13852
Point	-13853
▁Nile	-13854
▁kmph	-13855
primes	-13856
▁NoSQL	-13857
▁stating	-13858
▁Capitalize	-13859
▁television	-13860
▁manufacture	-13861
.),	-13862
▁Jose	-13863
▁Lear	-13864
▁closely	-13865
ativistic	-13866
▁symptoms	-13867
▁considers	-13868
CharTransformer	-13869
Cap	-13870
night	-13871
▁advoc	-13872
▁Others	-13873
▁[/	-13874
Line	-13875
acon	-13876
▁Pal	-13877
Deque	-13878
emann	-13879
outube	-13880
▁emits	-13881
nPlease	-13882
▁tissues	-13883
▁breakfast	-13884
▁inherently	-13885
▁CipherProcessor	-13886
▁Jacob	-13887
▁Within	-13888
▁chromos	-13889
▁photosynthesis	-13890
}/	-13891
TER	-13892
kins	-13893
note	-13894
▁toys	-13895
ushing	-13896
▁physi	-13897
▁farmer	-13898
▁remained	-13899
▁intellect	-13900
▁preserved	-13901
▁redundancy	-13902
ona	-13903
asts	-13904
elike	-13905
ranges	-13906
script	-13907
▁exits	-13908
Unknown	-13909
▁slopes	-13910
▁corners	-13911
▁equator	-13912
▁necessity	-13913
"?	-13914
▁pal	-13915
cohol	-13916
▁horse	-13917
▁quark	-13918
assuming	-13919
▁Charles	-13920
▁forever	-13921
▁notable	-13922
▁behavioral	-13923
▁groundwork	-13924
▁'''	-13925
▁ounces	-13926
▁constit	-13927
▁intense	-13928
▁November	-13929
▁greeting	-13930
▁rectifying	-13931
▁unsupported	-13932
Implementation	-13933
Ext	-13934
ority	-13935
▁Dutch	-13936
▁cable	-13937
▁flavor	-13938
▁refresh	-13939
▁witness	-13940
available	-13941
▁quicksort	-13942
▁Alternating	-13943
▁Schrodinger	-13944
▁teleportation	-13945
Opt	-13946
▁mg	-13947
mask	-13948
▁MAC	-13949
▁USD	-13950
▁Dynam	-13951
▁aster	-13952
athered	-13953
▁Canada	-13954
▁eruption	-13955
▁somebody	-13956
▁modularity	-13957
▁encapsulation	-13958
yal	-13959
nchar	-13960
▁earns	-13961
▁lemmat	-13962
++:	-13963
lie	-13964
oured	-13965
▁Cross	-13966
▁FASTA	-13967
rotator	-13968
▁inject	-13969
........	-13970
▁farmers	-13971
clockwise	-13972
▁recessive	-13973
▁staircase	-13974
▁interpreted	-13975
\}$	-13976
copy	-13977
eder	-13978
▁Nor	-13979
▁tum	-13980
enoid	-13981
▁anticip	-13982
▁temporarily	-13983
EG	-13984
▁df	-13985
▁Sar	-13986
▁nick	-13987
indexed	-13988
▁Qt	-13989
▁Den	-13990
oulli	-13991
▁CIFAR	-13992
▁freel	-13993
▁pione	-13994
acterial	-13995
vironment	-13996
▁informed	-13997
recursively	-13998
▁isLowerCase	-13999
▁tokenization	-14000
SM	-14001
."?	-14002
pow	-14003
▁Rc	-14004
▁Cou	-14005
▁Hen	-14006
pairs	-14007
tests	-14008
▁flush	-14009
▁consulting	-14010
BN	-14011
▁°	-14012
QTT	-14013
▁Mad	-14014
▁Hall	-14015
▁afford	-14016
▁plugins	-14017
▁rotates	-14018
▁sklearn	-14019
▁doubling	-14020
det	-14021
▁Cle	-14022
▁chips	-14023
▁Commun	-14024
▁shrink	-14025
▁fiction	-14026
▁neurons	-14027
▁streets	-14028
▁tactics	-14029
▁defaulting	-14030
▁quadrilateral	-14031
]()	-14032
employ	-14033
▁White	-14034
commands	-14035
▁Alphabet	-14036
▁tutoring	-14037
▁intersects	-14038
arxiv	-14039
rocal	-14040
▁Prime	-14041
▁negot	-14042
counter	-14043
▁happiness	-14044
▁hypothetical	-14045
▁VR	-14046
Some	-14047
shall	-14048
Amount	-14049
▁alchemy	-14050
▁workload	-14051
▁WebSocket	-14052
▁}{	-14053
ocarp	-14054
▁Orig	-14055
double	-14056
▁crash	-14057
▁curios	-14058
▁killed	-14059
▁sketch	-14060
▁triplet	-14061
▁payloads	-14062
▁visiting	-14063
Rightarrow	-14064
shiftValue	-14065
▁displaced	-14066
▁expectations	-14067
<<	-14068
Wh	-14069
▁AP	-14070
show	-14071
ogens	-14072
▁dent	-14073
cloned	-14074
▁mentions	-14075
▁Algorithm	-14076
▁illuminate	-14077
▁encapsulate	-14078
rus	-14079
udd	-14080
agement	-14081
Word	-14082
llib	-14083
▁Tur	-14084
▁noted	-14085
▁tenant	-14086
▁reinfor	-14087
▁iterable	-14088
▁organizes	-14089
▁accountant	-14090
▁migrations	-14091
nBy	-14092
▁spr	-14093
letion	-14094
sample	-14095
▁missed	-14096
variance	-14097
▁NoShift	-14098
▁pockets	-14099
▁textual	-14100
▁intertwined	-14101
bmod	-14102
omin	-14103
phant	-14104
duction	-14105
▁feasible	-14106
▁awareness	-14107
▁hydraulic	-14108
▁substances	-14109
UP	-14110
▁>>	-14111
)+\\	-14112
$$$),	-14113
orist	-14114
sized	-14115
▁unus	-14116
Driver	-14117
▁ritual	-14118
Alphabet	-14119
Done	-14120
ncil	-14121
▁inev	-14122
▁dummy	-14123
▁adopted	-14124
▁matters	-14125
akers	-14126
ellar	-14127
▁fees	-14128
▁disag	-14129
▁heter	-14130
▁sweet	-14131
▁yeast	-14132
equence	-14133
▁geomet	-14134
▁outdoor	-14135
▁biodiversity	-14136
▁backpropagation	-14137
▁experimentation	-14138
ownt	-14139
afety	-14140
▁clicks	-14141
▁fairly	-14142
▁recept	-14143
ira	-14144
iger	-14145
▁HPC	-14146
lugin	-14147
▁inch	-14148
github	-14149
images	-14150
▁locked	-14151
try	-14152
▁XR	-14153
Inte	-14154
▁lava	-14155
▁analys	-14156
▁reversible	-14157
▁visualizes	-14158
itic	-14159
▁UTC	-14160
sheet	-14161
▁Edit	-14162
▁Item	-14163
▁solute	-14164
▁Student	-14165
downarrow	-14166
▁bookshel	-14167
▁accepting	-14168
▁denominator	-14169
▁deterministic	-14170
ennis	-14171
▁critic	-14172
▁triples	-14173
istically	-14174
▁regulate	-14175
▁adaptations	-14176
hips	-14177
▁Light	-14178
dataset	-14179
▁scenes	-14180
▁Ansible	-14181
▁touches	-14182
▁undergo	-14183
▁timeline	-14184
▁deploying	-14185
▁polynomials	-14186
nUsing	-14187
learning	-14188
▁passive	-14189
▁selector	-14190
Unit	-14191
▁GPS	-14192
▁Joe	-14193
▁slug	-14194
▁Strive	-14195
▁incomp	-14196
▁schemes	-14197
▁Thursday	-14198
▁orbiting	-14199
▁exploring	-14200
▁isUpperCase	-14201
▁CaseStrategy	-14202
dm	-14203
ersion	-14204
▁waters	-14205
▁forcing	-14206
▁glasses	-14207
▁indirect	-14208
▁intervent	-14209
▁stretched	-14210
EC	-14211
Es	-14212
nV	-14213
▁blur	-14214
▁Stack	-14215
▁Manager	-14216
▁propane	-14217
^(	-14218
▁'!	-14219
)$$$,	-14220
roups	-14221
hattan	-14222
▁microw	-14223
eleration	-14224
▁compiled	-14225
▁Australia	-14226
▁prompting	-14227
▁cacheManager	-14228
dv	-14229
ald	-14230
▁Blo	-14231
▁Lim	-14232
height	-14233
▁cataly	-14234
▁magical	-14235
▁teaching	-14236
▁predicate	-14237
city	-14238
▁Ash	-14239
▁Pot	-14240
▁Spark	-14241
▁Pascal	-14242
▁bundle	-14243
▁namely	-14244
▁shirts	-14245
▁territ	-14246
▁necessitates	-14247
ShiftProcessor	-14248
<&	-14249
born	-14250
phot	-14251
▁Clu	-14252
▁dir	-14253
binom	-14254
▁[...	-14255
▁qubit	-14256
▁episodes	-14257
▁unstable	-14258
▁chocolates	-14259
▁classified	-14260
▁industries	-14261
.'	-14262
bor	-14263
uan	-14264
▁Rena	-14265
▁hashes	-14266
▁Monocarp	-14267
▁absorbing	-14268
PO	-14269
▁ham	-14270
ranch	-14271
igious	-14272
issors	-14273
▁merch	-14274
isition	-14275
▁committed	-14276
▁scientist	-14277
▁enumerated	-14278
▁perception	-14279
▁Ai	-14280
▁Prov	-14281
▁scipy	-14282
▁assemb	-14283
▁brings	-14284
▁seismic	-14285
▁reversal	-14286
▁touchdown	-14287
PG	-14288
ket	-14289
oops	-14290
▁\)?	-14291
▁Carl	-14292
▁Pand	-14293
▁pace	-14294
▁Taylor	-14295
determine	-14296
▁instantly	-14297
▁scripting	-14298
▁demonstration	-14299
}).	-14300
rick	-14301
stop	-14302
ingers	-14303
▁Monte	-14304
▁cavity	-14305
▁borders	-14306
▁enumeration	-14307
Get	-14308
▁Off	-14309
▁ease	-14310
carbon	-14311
▁capill	-14312
▁mining	-14313
username	-14314
▁seeking	-14315
▁flipping	-14316
▁medieval	-14317
▁shiftCache	-14318
▁insufficient	-14319
}}}	-14320
▁LIS	-14321
▁UDP	-14322
▁Moon	-14323
▁amidst	-14324
▁uneven	-14325
▁Boolean	-14326
▁synthes	-14327
▁treatments	-14328
▁Roy	-14329
▁Block	-14330
▁weird	-14331
extract	-14332
▁deriving	-14333
▁guessing	-14334
Classifier	-14335
▁Bu	-14336
Trait	-14337
oting	-14338
▁MQTT	-14339
▁drug	-14340
▁blanket	-14341
▁mastery	-14342
▁providers	-14343
▁ITransformer	-14344
HO	-14345
|$	-14346
leys	-14347
▁mail	-14348
▁accomp	-14349
▁marble	-14350
▁websites	-14351
▁assistant	-14352
▁projectile	-14353
▁microservice	-14354
AO	-14355
()],\	-14356
posed	-14357
ranes	-14358
▁Bang	-14359
ripetal	-14360
omorphic	-14361
▁bedrock	-14362
▁gradual	-14363
▁permanent	-14364
▁declarative	-14365
▁observables	-14366
▁processChar	-14367
Si	-14368
Pol	-14369
▁RT	-14370
▁NAD	-14371
▁amp	-14372
▁Renaissance	-14373
yle	-14374
▁CM	-14375
aybe	-14376
umni	-14377
nable	-14378
engine	-14379
▁coherence	-14380
▁nonprofit	-14381
▁continents	-14382
▁Constitution	-14383
▁discrepancies	-14384
.(	-14385
Logger	-14386
▁perpet	-14387
▁Company	-14388
▁verified	-14389
▁dangerous	-14390
▁Jane	-14391
arrays	-14392
namese	-14393
nhttps	-14394
▁deletions	-14395
▁friendships	-14396
*(	-14397
)])	-14398
▁dont	-14399
▁Place	-14400
▁morally	-14401
▁serious	-14402
▁succeed	-14403
▁inverted	-14404
▁causality	-14405
▁potentials	-14406
▁BDD	-14407
▁Pet	-14408
▁advisor	-14409
▁husband	-14410
▁nations	-14411
▁seasonal	-14412
)],	-14413
zed	-14414
uity	-14415
liest	-14416
layers	-14417
▁immense	-14418
▁Remember	-14419
aC	-14420
]`,	-14421
jac	-14422
loc	-14423
oma	-14424
▁IM	-14425
▁Ven	-14426
overs	-14427
▁ties	-14428
▁desire	-14429
▁equipped	-14430
Hâ	-14431
ayment	-14432
▁intens	-14433
▁Quality	-14434
▁epsilon	-14435
▁amplitudes	-14436
cs	-14437
rays	-14438
Every	-14439
odern	-14440
posit	-14441
iffith	-14442
istribution	-14443
SingletonMeta	-14444
documentation	-14445
Att	-14446
]])	-14447
▁CRM	-14448
▁planned	-14449
▁confirmed	-14450
▁observing	-14451
▁depression	-14452
▁encompassing	-14453
ait	-14454
▁mur	-14455
rower	-14456
rition	-14457
▁Avoid	-14458
▁multis	-14459
▁warmth	-14460
▁signing	-14461
▁wrapped	-14462
▁deviations	-14463
▁stochastic	-14464
elvin	-14465
▁scrapes	-14466
▁fairness	-14467
▁logistics	-14468
▁simulating	-14469
▁.\	-14470
▁pd	-14471
▁HDF	-14472
▁Analy	-14473
▁abbre	-14474
Product	-14475
▁Premise	-14476
▁gathering	-14477
▁restricted	-14478
▁programmers	-14479
GR	-14480
▁Câ	-14481
diff	-14482
▁TLS	-14483
▁Prof	-14484
▁CaseToggle	-14485
▁compelling	-14486
▁ShifterType	-14487
uty	-14488
aton	-14489
fish	-14490
turn	-14491
ATION	-14492
anium	-14493
apper	-14494
meter	-14495
▁Louis	-14496
▁films	-14497
▁corrupt	-14498
▁schemas	-14499
▁uploading	-14500
Transformed	-14501
▁corrections	-14502
+]	-14503
/'	-14504
bench	-14505
▁margin	-14506
▁permit	-14507
▁vanish	-14508
▁Tkinter	-14509
▁relying	-14510
transforms	-14511
▁bacterial	-14512
isprintable	-14513
▁reciprocal	-14514
▁arbitrarily	-14515
▁ProcessState	-14516
▁superconduct	-14517
aaa	-14518
fly	-14519
Duplic	-14520
System	-14521
▁shall	-14522
▁solenoid	-14523
▁corrected	-14524
▁reachable	-14525
▁positively	-14526
ND	-14527
▁#[	-14528
nAcc	-14529
▁Apple	-14530
▁beneficial	-14531
▁traversing	-14532
▁deployments	-14533
▁increasingly	-14534
OK	-14535
$:\	-14536
▁(+	-14537
▁[-]	-14538
▁xor	-14539
'));\	-14540
▁pill	-14541
estial	-14542
aseless	-14543
▁aftern	-14544
▁genomic	-14545
▁recurrent	-14546
▁exemplified	-14547
▁incorporated	-14548
▁MP	-14549
▁`@	-14550
▁stro	-14551
arcasm	-14552
umbered	-14553
▁alcohol	-14554
▁breathe	-14555
▁concern	-14556
▁markdown	-14557
▁adiabatic	-14558
▁analogous	-14559
▁snapshots	-14560
▁wikipedia	-14561
▁Information	-14562
},{	-14563
▁'?	-14564
▁vig	-14565
▁bout	-14566
▁orbitals	-14567
▁swimming	-14568
▁dispersion	-14569
▁presentation	-14570
kata	-14571
▁Bank	-14572
▁Mass	-14573
▁chair	-14574
▁rhyth	-14575
▁reproduction	-14576
RC	-14577
▁src	-14578
▁arms	-14579
▁chamber	-14580
▁combust	-14581
▁scoping	-14582
▁initializer	-14583
▁hyperparameter	-14584
ethe	-14585
nuke	-14586
▁Mrs	-14587
)$$$.	-14588
utter	-14589
▁hill	-14590
▁Court	-14591
represent	-14592
▁inheriting	-14593
▁getInstance	-14594
!("{	-14595
save	-14596
cation	-14597
▁Right	-14598
▁Split	-14599
▁bulbs	-14600
because	-14601
▁labeling	-14602
▁Represent	-14603
▁consciousness	-14604
▁recommendation	-14605
TK	-14606
[...]
